#version: 0.2
Ġ t
Ġ a
h e
i n
r e
Ġt he
o n
e r
Ġ s
Ġ w
a t
Ġ o
e n
Ġ c
i t
i s
a n
o r
Ġ b
e s
e d
Ġ f
in g
Ġ p
o u
Ġa n
a l
Ġt o
a r
Ġ m
Ġ in
Ġo f
Ġ h
Ġ d
â Ģ
a s
i c
Ġan d
Ġt h
l e
o m
i on
l l
en t
Ġ n
Ġ l
Ġ re
s t
v e
Ġ e
l y
r o
Ġb e
Ġ g
i d
u t
a c
o t
Ġ T
Ġ I
Ġth at
Ġ on
a y
Ġ S
Ġ is
e t
i m
a m
a d
o w
s e
i g
Ġf or
âĢ Ļ
Ġ A
v er
u r
c t
l d
Ġ C
Ġ u
Ġs t
Ġ y
Ġ it
Ġ he
i r
at ion
it h
Ġw h
Ġ M
c e
t er
o l
Ġw e
i l
Ġw ith
Ġa s
Ġ B
c h
i ll
n d
Ġ P
Ġw as
er s
Ġy ou
k e
Ġ âĢ
Ġc on
Ġd e
Ġ r
he r
i f
at e
a g
Ġa t
Ġh a
Ġ W
Ġs e
Ġ H
o re
Ġp ro
u l
p p
m ent
r i
Ġa re
Ġ D
Ġ 1
u s
es t
is t
Ġc om
an d
Ġ R
o p
a in
ĠT he
Ġ 2
ig h
r om
en d
Ġ (
t e
t h
o d
Ġn e
Ġ F
u m
u n
Ġe x
re s
a b
âĢ Ŀ
Ġn ot
Ġ N
Ġ v
es s
Ġha ve
it y
ou ld
Ġo r
Ġb y
or t
o s
Ġ G
i ve
Ġf rom
an t
Ġa l
' s
o c
Ġs u
ar t
e l
Ġ L
Ġs h
Ġth is
e m
q u
n t
igh t
p e
u st
Ġ le
i es
Ġ E
Ġc h
Ġs a
Ġa b
T he
ou t
al l
i e
ac k
re d
0 0
ĠâĢ ľ
Ġh as
al ly
Ġ J
Ġp l
Ġg o
ar d
i v
Ġh is
om e
a p
o st
g h
e ar
Ġ O
Ġt r
ou r
Ġ j
a k
u d
Ġw or
as t
Ġd o
Ġthe y
Ġb ut
r ou
Ġc an
g e
Ġw ill
Ġsa id
Ġw he
Ġ U
Ġ k
ic h
Ġa ll
o k
Ġ "
id e
Ġwh o
am e
an s
t her
i al
Ġo ut
f f
Ġthe ir
on g
p l
ic e
u re
on e
Ġm ore
ag e
ion s
ac t
Ġu p
i ke
Ġm e
ou s
in e
Ġa d
e p
Ġab out
at ed
r a
b er
p t
Ġon e
Ġwe re
Ġs o
Ġu s
e ct
o g
im e
Ġ K
i a
Ġh ad
a re
u b
c c
Ġw ould
Ġc l
Ġ2 0
Ġ im
Ġwh ich
in d
x t
u e
a ke
i z
ver y
Ġa g
Ġt e
Ġof f
Ġcom p
Ġu n
Ġbe en
Ġin t
s o
Ġ en
p er
ig n
a u
Ġcon t
ĠT h
ar y
Ġy ear
i p
ac e
e w
Ġl ike
v en
o ok
Ġin c
ay s
Ġm an
Ġp e
ĠI n
r y
o se
Ġre s
ab le
it e
Ġp er
as s
or d
Ġs p
i re
Ġo ther
m er
Ġs ome
i le
i b
en ce
ĠS t
op le
Ġ20 1
k s
ation s
Ġo ver
ic al
Ġthe re
res s
Ġd is
ul t
Ġne w
ow n
Ġal so
Ġth an
Ġa r
Ġbe c
r u
Ġthe m
an ce
ou gh
Ġa pp
p ort
ou nt
a il
re e
in t
Ġp art
Ġyou r
Ġwhe n
Ġwh at
or m
on d
Ġpe ople
f ter
Ġs c
ĠC h
a v
as e
Ġ qu
Ġan y
Ġj ust
Ġit s
Ġ Y
ac h
ct ion
Ġt ime
o f
Ġk n
ĠI t
Ġhe r
Ġ 3
en s
l ic
Ġre c
re at
Ġm y
Ġg et
Ġ if
Ġ V
i an
. âĢĿ
Ġint o
ou nd
Ġwor k
Ġt w
ir st
ve l
Ġn o
d u
ing s
e re
or y
ic k
or s
Ġo ur
it ion
id ent
o b
Ġ -
Ġp re
o ve
Ġpl ay
an g
in k
au se
w n
te xt
am p
ad e
at es
h ing
ar k
Ġ ro
Ġp ol
Ġs he
ver s
Ġc o
, âĢĿ
Ġa fter
n e
Ġf irst
Ġc ould
Ġh ow
ĠH e
Ġ1 9
i ous
nd er
i ld
Ġa cc
Ġh im
a w
' t
on s
Ġp o
| >
< |
end of
endof text
Ġon ly
Ġf e
ic t
he d
Ġp r
r it
o v
Ġtw o
is h
Ġcom m
âĢ ľ
Ġs pe
f orm
Ġa ct
er v
Ġb l
w e
Ġbe t
Ġde c
. "
n ing
Ġb ack
Ġm ost
c es
f t
o od
c k
ĠâĢ ĵ
Ġa m
o y
Ġd id
rou gh
if f
at er
rou nd
Ġag ain
Ġ 4
u al
d ay
is e
Ġu nder
Ġd es
Ġw ant
u ll
se l
Ġcon s
ĠâĢ Ķ
. .
Ġbec ause
Ġn ow
l ud
ent s
m an
Ġyear s
ter n
ub lic
Ġne ed
e c
Ġe ven
Ġ $
is s
Ġin v
Ġat t
Ġkn ow
ĠW e
Ġse e
ment s
c ed
Ġad d
, "
o ld
Ġin d
t ing
Ġse c
f ore
u ch
Ġe very
ur n
Ġ 5
Ġsu pp
Ġm ake
pe ct
ĠU n
Ġe m
Ġthe se
oc k
I n
o ll
Ġwhe re
j ect
ation al
ver n
Ġb u
Ġl ook
T h
ĠA nd
os s
Ġd on
Ġe v
um p
at ing
Ġw ay
Ġbe ing
Ġre m
i ly
Ġm ay
n g
ro w
le ct
ie w
Ġthe n
Ġr ight
Ġman y
Ġ [
Ġd iff
Ġde f
as on
Ġre l
Ġc all
ĠB ut
ĠT r
l es
i ed
as ed
Ġinc lud
Ġth ink
ak ing
Ġre g
) .
on t
mer ic
Ġim p
Ġth rough
at h
it ed
ri b
Ġs y
Ġsh ould
Ġp res
Ġs ay
Ġf l
ur ing
Ġl ast
t y
Ġth ose
ow er
Ġ very
ot her
Ġm uch
it ies
if ic
Ġst ate
ĠTh is
at ive
Ġsh ow
t le
he n
Ġb r
s s
ar g
Ġwe ll
ot h
Ġp h
ĠW h
al s
u nd
Ġc ount
Ġ2 00
Ġdo es
Ġd own
Ġo wn
ar ly
Ġ end
Ġas s
Ġbe l
Ġu se
ic s
an ge
t s
- -
Ġl ong
ĠA meric
ter s
in ce
Ġbe fore
om et
g r
Ġm on
w ard
Ġgo vern
Ġst art
Ġre port
ib le
Ġ ke
u p
u es
ĠN ew
ou n
Ġf in
Ġte am
b le
Ġm ade
if e
ol og
re n
en er
) ,
Ġsu ch
c om
ers on
i x
e k
Ġs m
re st
âĢ Ķ
l p
il ity
Ġgo ing
is m
f ul
Ġwor ld
u ally
Ġst ud
ist s
Ġgo od
Ġa c
t ain
Ġsu b
Ġe ff
Ġs ur
Ġagain st
I t
it s
Ġg ame
Ġs et
or k
Ġ 6
Ġg u
Ġpo int
Ġ ent
y s
00 0
g an
ar s
l i
st em
Ġpro v
Ġst ill
rou p
Ġwh ile
ill ion
Ġhe lp
Ġle ad
e ll
Ġm in
m s
we en
. <|
a x
an k
al k
im es
Ġs ays
Ġo b
c y
Ġpro du
e f
Ġin te
Ġg r
Ġin ter
Ġin st
Ġst r
c ess
Ġs im
sel f
Ġcon f
Ġc ol
Ġt ake
i o
u res
ar ch
Ġs ame
Ġth ough
Ġbet ween
oll ow
Ġoff ic
e ver
Ġc r
l and
Ġdiff ere
o ol
us s
ut ion
Ġdis c
a ir
Ġo p
a h
Ġ ed
Ġh igh
re ad
Ġn um
Ġl aw
Ġs ign
w ay
Ġgovern ment
g g
l ed
ĠR e
n er
h ip
at ch
he s
am es
an y
Ġt er
Ġs omet
c ent
t en
vel op
t ed
W e
Ġre f
Ġtr ans
Ġin s
Ġr un
Ġs er
Ġf ound
Ġth ree
iv es
a ve
Ġm em
Ġa round
Ġhe re
at her
Ġm ed
Ġre al
Ġus ed
ou se
Ġ1 0
v ed
Ġex p
a z
ĠA r
ce pt
o ot
Ġsy stem
ĠY ou
c i
Ġre ally
Ġm od
v ing
c on
c er
Ġg roup
Ġsupp ort
Ġ 7
Ġc our
et s
al e
in s
Ġc ar
Ġre t
Ġh and
Ġp ublic
Ġspe c
p r
p h
ĠL e
y ing
Ġg reat
en se
Ġex t
t on
. [
ire ct
Ġc ur
Ġf am
ĠC om
al th
Ġha pp
Ġf act
Ġex per
ĠThe y
ĠTr ump
Ġf r
Ġw om
ĠI s
Ġc ap
Ġb oth
Ġd ay
Ġf ind
ĠA l
ul ar
Ġre ad
in es
o h
ic es
Ġd et
Ġl it
Ġs l
Ġre p
ut h
Ġd uring
ĠS h
ĠA s
Ġ 0
Ġs erv
t he
m in
Ġmon th
is ion
Ġde velop
Ġb ig
Ġ 8
Ġp erson
ak es
Ġf ollow
Ġc re
ĠC l
Ġis s
Ġto ld
Ġs ince
a red
m ed
ic ally
Ġwe ek
ag es
i vers
Ġw ar
Ġf ew
ord ing
Ġc ent
Ġle g
a j
e x
g et
Ġpol it
v es
as h
Ġex pl
e red
Ġl ot
r ic
Ġbel ie
Ġg ener
Ġto o
Ġ 9
d er
at a
re nt
Ġo pp
W h
Ġre qu
Ġcont in
i et
b ers
an c
Ġf il
Ġc or
ent ion
n ess
Ġc le
Ġres p
Ġp ut
iz ed
ĠI f
Ġan other
2 0
ch ool
Ġin f
Ġsomet hing
Ġdiffere nt
Ġl oc
ĠD e
ut e
Ġinv est
Ġs oc
Ġp ower
Ġc he
u c
Ġ '
Ġp ass
Ġcomm un
Ġl ife
ĠF r
Ġpl an
od y
Ġre le
i ence
Ġhe ad
Ġth ings
n ed
th ing
Ġf ar
o x
Ġar t
Ġp oss
Ġm et
Ġc amp
ro ss
ar ge
Ġv ot
i er
Th is
v iew
Ġch ild
ant s
Ġas k
Ġm ight
Ġe ach
iz e
Ġde p
in ess
Ġ .
Ġne ver
Ġne xt
ĠF or
i k
ĠA n
ie ld
Ġsec ond
Ġm ark
Ġqu est
Ġb us
Ġad v
Ġde m
Ġcom e
Ġg ot
ĠâĢ ĺ
re t
Ġop en
Ġb est
i ent
it al
Ġall ow
ĠTh at
r at
Ġse em
Ġp ost
p le
te m
n ce
Ġfe el
ĠP ro
ĠU S
u g
Ġp ri
gr am
Ġper cent
c l
Ġh ome
Ġd ist
Ġd irect
i red
Ġinc re
Ġcont ro
ĠR ep
s on
l ess
or n
os ed
Ġres ult
Ġh ard
Ġc are
ate ly
Ġm illion
ch n
Ġcomp le
Ġpl ace
Ġwith out
Ġin form
Ġinclud ing
Ġim port
Ġa v
con om
Ġh um
Ġ ide
Ġpro ble
Ġbu ild
Ġto p
am a
Ġnum ber
Ġcount ry
g y
one y
a im
ĠB l
r al
t t
ab ly
u ro
Ġst and
Ġg l
Ġe l
ri end
Ġf our
is hed
w ays
Ġpart ic
Ġbet ter
Ġt ri
B ut
Ġrec ent
c o
Ġinte rest
Ġm ov
Ġle t
r ation
Ġse ason
Ġl ess
Ġt urn
Ġlit tle
Ġbe h
Ġm il
e ad
Ġapp ro
r act
l ine
Ġb ro
l ing
is ed
Ġcall ed
a pp
1 0
Ġc ase
Ġd r
ĠI nd
Ġre st
Ġle ft
Ġp op
Ġan n
Ġ Z
en cy
Ġm ove
od e
in a
Ġatt ack
ĠThe re
Ġke ep
Ġf ull
er ing
Ġdid n
b e
Ġf un
Ġm ain
aj or
_ _
Ġeff ect
in al
m e
le g
Ġpre v
Ġpro gram
Ġus ing
t o
Ġt est
Ġp ay
at ure
Ġe ar
Ġv al
Ġpol ice
Ġw rit
Ġfor m
Ġe conom
Ġd ata
Ġnew s
Ġp os
Ġw in
Ġch ar
ĠAmeric an
Ġle vel
Ġs it
ain s
iv ing
u ck
Ġsm all
in ed
read y
H e
Ġs chool
Ġl ist
olog y
r ap
m it
id ed
pl oy
' re
g er
Ġe as
Ġpro cess
ir d
Ġch ange
or th
Ġwom en
Ġcur rent
Ġre ce
Ġp rom
Ġh ist
Ġd ri
Ġ =
i ans
re en
Ġpres ident
Ġcomp any
us ed
Ġm at
ru ct
Ġal ready
oh n
ĠUn ited
w it
Ġt y
Ġwh y
Ġb re
Ġu nt
Ġm oney
Ġs ol
Ġal ways
Ġl ater
Ġex pect
Ġte chn
Ġbus iness
ĠH ow
Ġoffic ial
r on
Ġ Q
ĠO b
st and
ivers ity
Ġb ook
Ġb o
ĠP h
a ign
Ġth ing
Ġcl ass
Ġpro ject
as es
Ġcl aim
Ġj ob
Ġinform ation
Ġor gan
a ff
ĠS he
Ġt alk
ard s
ĠB e
Ġdes ign
Ġst ory
Ġch ang
Ġm ajor
Ġab le
Ġpro f
Ġ- -
le ction
iv en
er tain
Ġre se
Ġhe alth
Ġv is
ur s
Ġf ree
ou th
he re
ĠA d
Ġo per
ĠS o
Ġa way
i or
ĠC an
Ġm ust
Ġc ity
amp le
.. .
r ist
s c
ur al
Ġhapp en
uth or
Ġ1 8
ac y
ur ity
Ġimport ant
Ġk ill
Ġs k
pt ion
Ġ est
u red
Ġo ld
Ġp ast
Ġp at
ĠS e
ur y
end ing
Ġdoes n
iss ion
Ġle ast
Ġg row
Ġed it
Ġv ar
ain ed
Ġc ost
ne y
id er
ĠG o
id es
Ġd ays
Ġte ll
Ġh op
Ġcamp aign
s ide
Ġst re
Ġ1 2
Ġm en
Ġc ame
Ġa ff
ĠM ar
Ġcon st
res ident
Ġen ough
Ġv iew
cc ess
Ġk ind
ĠS p
o ad
er n
Ġm aking
el s
Ġl arge
Ġrec ord
5 0
us h
Ġm ar
Ġf riend
Ġfam ily
âĢ ¦
le y
Ġe lect
er al
Ġpol ic
Ġt ax
is ing
b y
pp ed
al ity
at or
if ied
A s
iv ed
r or
Ġunt il
are nt
ion al
Ġpolit ical
Ġv ide
Ġde al
ri es
al f
au gh
Ġ ve
Ġwork ing
u ed
ĠRep ublic
Ġto ok
Ġde b
b s
I f
is ter
Ġl ine
ĠJ ohn
ain ing
Ġa ir
-- --
Ġ es
an e
Ġin tern
Ġf ore
i ol
oc rat
Ġbec ome
Ġact ually
ap s
on y
Ġme an
w ork
ĠS c
Ġf und
w are
1 9
ĠP l
S t
Ġfor mer
Ġof ten
ĠE uro
an n
ot t
Ġw on
Ġg ive
Ġacc ording
Ġe ver
m ost
en g
y ear
Ġpro te
w h
ar ing
Ġg ames
is on
Ġhum an
Ġb as
Ġwor d
iz ation
Ġret urn
Ġt imes
Ġor der
ĠR uss
Ġb it
ĠD em
Ġn ame
o int
1 1
g in
Ġse ver
ĠC on
ĠA ll
Ġp ar
Ġde v
ic le
f or
ut ure
it her
i qu
Ġ19 9
ĠM c
ĠA t
Ġw r
ra ft
Ġs ing
Ġper form
ĠS y
id d
Ġmark et
Ġf ac
Ġchar ac
The re
ĠO r
ĠM ay
Ġr a
Ġdo ing
Ġapp ear
E R
c hed
Ġplay ers
Ġl a
Ġn ight
Ġle ar
ak en
ro p
at s
m ber
Ġto day
Ġe arly
Ġ1 5
Ġse en
/ /
Ġha ving
Ġ ,
Ġp ot
Ġchild ren
Ġev ent
Ġmed ia
Ġsoc ial
Ġc rit
ĠP resident
Ġwhe ther
Ġsever al
Ġcontro l
id ence
en e
Ġme et
s h
Ġmil it
Ġp ress
Ġw ent
art ment
Ġf ive
Ġyou ng
or ies
Ġpro p
ious ly
Ġsu re
Ġe qu
Ġquest ion
Ġo cc
un e
Ġlike ly
ver t
Ġmem bers
b r
Ġc ertain
i um
and s
Ġen g
Ġw ater
ĠY ork
Ġex ample
ot s
ĠC ol
Ġs ide
Ġar g
Ġd one
en n
Ġ vers
Ġan t
Ġinv ol
ĠM r
ĠSt ates
ĠEuro pe
end ed
le t
Ġal ong
Ġsh ort
Ġsu ccess
e e
ent ial
Ġmonth s
b all
Ġh our
Ġ1 1
ĠS te
i ver
i ally
A nd
Ġse x
l f
Ġwith in
Ġdes c
im ate
Ġcour se
Ġf ight
ur ch
ub l
Ġam ong
Ġact iv
u ff
âĢ ĵ
ag ue
Ġon ce
st er
Ġf uture
Ġinvest ig
ul ation
re w
Ġposs ible
ĠOb ama
Ġch o
n ect
ĠC ar
Ġunder stand
it ing
Ġcon cer
ĠO n
Ġ ]
on es
ort un
Ġproble m
ĠB r
Ġpri v
Ġme ans
Ġv iol
Ġa uthor
it ive
gg est
ĠN o
Ġav ail
oc i
our n
m y
Ġkn own
Ġprodu ct
Ġn on
iv id
Ġthough t
Ġy et
g ress
Ġac ross
Ġloc al
al d
l er
Ġh old
ĠT e
Ġf ail
ĠW hen
ĠSt ate
in c
Ġcommun ity
Ġre ason
Ġor ig
Ġsu ggest
Ġ &
1 2
Ġm akes
ver age
p or
n ot
b ack
Ġ201 6
Ġ i
b ook
Ġask ed
ed eral
or ld
Ġreport ed
Y ou
ag ed
ens ive
Ġg iven
Ġstr ong
Ġpro b
Ġm us
Ġother s
Ġbelie ve
Ġvide o
i ber
Ġb en
Ġget ting
ĠH ouse
an ces
Ġann oun
Ġl ight
ore d
o ber
ĠUn iversity
Ġ3 0
it ions
Ġ ident
ir on
Ġs ent
Ġc ut
Ġl im
Ġc a
ĠCh rist
ĠC o
iet y
3 0
ur ther
Ġs our
Ġc reat
Ġcon d
Ġ X
am s
' ve
Ġn et
as hing
Ġb at
am ent
Ġn ational
. ,
Ġcl ose
Ġstart ed
Ġsa f
Ġde ath
as ter
Ġavail able
ar m
F or
Ġh ig
Ġb ased
Ġiss ue
Ġind ust
ĠM in
ĠDem ocrat
Ġl ow
Ġfollow ing
res ent
Ġacc ount
Ġl and
u se
ĠC ent
Ġem ploy
Ġl ove
Ġ201 5
Ġ #
Ġhist ory
Ġag o
ort s
sel ves
Ġm om
Ġpart y
ab ility
Ġser ies
Ġcom es
Ġtr ying
u ly
ut es
Ġal most
ĠA m
get her
u ment
Ġto gether
in ation
A T
ĠAmeric a
Ġide a
p ro
ie f
Ġacc ess
Ġf oc
e b
her s
il ar
ĠF l
re ed
ail s
Ġcomm it
ition al
Ġis n
ĠS en
Ġcle ar
Ġ1 6
ĠO ne
Ġtr ad
th ough
r ing
ĠWh at
Ġpr act
Ġadd ed
Ġimp ro
Ġexper ience
ere nce
Ġfil m
1 5
Ġh alf
ust om
g ed
Ġh it
a f
ĠB ro
wit ter
r ict
Ġan al
Ġpro t
int on
og rap
un ch
Ġ201 4
Ġr ul
ivid ual
Ġlook ing
Ġs ix
Ġl ive
Ġany thing
Ġare a
Ġcomple te
er man
min ist
Ġm iss
ra el
ĠCom m
Ġf av
ĠE x
tem pt
Ġr is
a i
n es
Ġpres ent
ot e
ru g
Ġsay ing
ra w
a id
ĠCan ad
Ġv ict
I N
ci ally
Ġb ad
ow s
u ge
Ġt aken
Ġent ire
er t
ot o
ĠP r
at ors
Ġm or
Ġb ill
Ġcomp et
ĠE ng
Ġbeh ind
i en
Ġa ut
' m
ĠT o
Ġcour t
pl ay
Ġtr y
Ġt re
ward s
Ġmilit ary
Ġ z
Ġne ar
os p
Wh at
Ġf ace
Ġm ult
Ġ1 4
Ġsec urity
Ġ er
ĠP ol
p s
e v
Ġpro per
Ġdisc uss
Ġth reat
Ġstud y
Ġsing le
Ġr ather
Ġind ividual
ĠA f
ĠW ar
ĠB rit
Ġs w
Ġ Â
Ġqu ick
Ġto t
ĠD on
A n
Ġm ind
ĠS ec
le ment
al es
am ed
at ic
ĠN orth
ap er
Ġp ubl
p ar
Ġpolic y
Ġm ess
r is
Ġbl ack
Ġwant ed
Ġf all
ir c
* *
o ff
Ġf ood
Ġs um
Ġsome one
ll ing
id s
O n
ĠD ep
ĠM an
Ġ /
Ġc ult
Ġspec ial
Ġcom b
Ġke y
Ġplay er
Ġre du
Ġ |
ĠG r
Ġbr ing
Ġ1 3
Ġcomp an
Ġ1 7
p ly
ro te
Ġat tempt
ĠB ar
ĠN ational
Ġt aking
W hen
y n
O N
if y
ol ution
Ġ :
v iron
Ġf oot
ĠC al
: //
Ġel se
Ġpre t
Ġb ody
Ġsp ace
o ver
d d
Ġc oun
el t
Ġprob ably
1 6
ic ult
. )
Ġfr ont
Ġc ou
Ġnot hing
ashing ton
ĠI m
Ġcon nect
c hes
ĠW orld
Ġrese arch
1 4
m ing
ĠCl inton
ĠC ity
Ġcom ing
Ġpoint s
ĠIs rael
R E
Ġhow ever
Ġdesc rib
g o
Ġj o
Ġsign ific
Ġsim ilar
li er
re me
c ing
Ġben ef
ĠA ust
Ġdec ision
Ġe ither
ac es
ĠH ar
a ult
Ġm ass
m b
Ġs us
Ġt arg
ull y
s y
an a
Ġfe at
Th at
Ġim m
Ġcon v
Ġex ist
ir l
Ġen c
Ġ201 3
Ġright s
Ġserv ice
ĠS u
as ing
un g
I S
o on
Ġf ire
Ġd oc
Ġw rote
Ġf urther
Ġh ouse
ro du
Ġb an
w w
Ġf ig
Ġch all
Ġth ird
Ġprote ct
Ġw a
Ġcre ate
s w
Ġst op
Ġf ield
n ow
Ġp ick
A N
a pe
ive ly
Ġme as
Ġre pl
Ġcom pl
ĠW ith
Ġiss ues
pp ing
Ġbe gin
Ġsu per
am er
Ġst ep
ri ed
ent ly
Ġwho le
Ġrel ations
Ġseem s
Ġ )
Ġt em
Ġcompan ies
pe cially
Ġd ue
Ġex ec
Ġc and
Ġevery thing
Ġf ederal
Ġst ates
ĠG u
Ġe y
Ġro om
a ul
Ġtr a
Ġw atch
ĠG e
Ġc ustom
Ġlead ers
r an
1 3
u ation
ĠHow ever
p ite
ĠJ an
ĠW ashington
C h
l am
Ġse lf
Ġro le
il t
Ġs ound
Ġl ab
he ad
Ġd am
iv il
Ġofficial s
Ġst ri
S o
l u
Ġ201 2
id ay
ib ility
Ġrele ased
ĠIn st
Ġbe gan
ĠD av
ĠA pp
ĠS outh
Ġo pt
ob al
Ġstud ents
Ġt reat
e al
Ġfin al
Ġcharac ter
Ġpos ition
Ġmat ter
Ã ©
end er
Ġen er
l im
Ġd ou
Ġout side
er y
se c
ad es
viron ment
Ġdevelop ment
Ġstate ment
Ġhim self
Ġ201 7
Ġst at
Ġab ove
l ike
Ġin it
Ġbre ak
Ġ1 00
Ġam ount
Ġprov ide
at t
Ġhour s
Ġit self
Ġthem selves
Ġoff ice
Ġrep resent
Ġa ction
Ġd i
Ġbec ame
Ġ19 8
Ġgener al
Ġcontin ue
ĠP art
Ġcount ries
ĠIn tern
Ġne g
i od
Ġadd ress
te e
Ġ2 5
Ġg un
ac ed
as k
Ġtr ue
Ġspec ific
ograp h
um b
ar ter
re g
Ġl arg
Ġsignific ant
l ish
Ġsim ply
ĠA ss
ĠR es
Ġwas n
' ll
Ġinter view
ace book
il i
Ġg round
Ġr ad
o id
og n
Ġdiff icult
Ġrun ning
ĠJ ust
Ġev idence
Ġad minist
B C
Ġc op
1 7
re am
Ġd rug
Ġvers ion
Ġb ar
og le
ĠE d
Ġag ree
idd le
e ks
Ġbuild ing
ĠCh ina
Ġneed s
Ġprof ess
ang u
Ġgroup s
Ġty p
Ġresp ons
Ġcomm on
Ġshow s
Ġevery one
Ġd om
Ġd est
Ġneed ed
Ġb all
Ġwom an
ĠG erman
Ġl at
Ġbel ow
r ight
ĠS ep
l ight
ourn al
Ġmus ic
Ġex c
Ġrele ase
if t
Ġin j
Ġpret ty
ĠM ed
ĠA b
A R
rib ut
Ġinclud e
Ġsa w
Ġde ep
b ody
Ġa p
1 8
Ġplay ed
Ġqu ite
Ġindust ry
Ġch arg
Ġm ag
Ġener gy
Ġplay ing
Ġm ot
Ġ5 0
Ġcand id
Ġs ense
Ġph ys
Ġl ate
Ġal leg
Ġwh ite
ĠH is
iv al
Ġfriend s
Ġg en
Ġleg al
at ur
Ġan im
is c
b o
y le
ĠA fter
H ow
A S
w here
Ġab s
le v
Ġinst ead
Ġre d
Ġb illion
Ġl ost
Ġes pecially
Ġval ue
ĠM us
ĠW est
Ġh ost
Ġh om
t ime
os ing
or ing
ĠNew s
ag er
Ġp le
ist ic
Ġwe eks
ep end
ĠN ot
cc ording
om m
Ġfor ward
iqu e
Ġdet er
Ġe lection
Ġrecent ly
Ġj ud
Ġtr ack
Ġsu ff
Ġvot e
l t
ĠT witter
Ġob ject
med i
Ġper iod
Ġchang es
Ġopp ortun
ĠWh ite
ĠO ct
Ġlong er
ir t
ar c
o ke
Ġp ain
Ġso on
Ġs ite
Ġ {
Ġe p
h od
ri pt
ac hed
Ġac cept
ĠC ong
__ __
Ġsh oot
Ġeconom ic
Ġhop e
ir m
o e
Ġmom ent
Ġdec l
le ge
Ġcons um
ĠW ill
Ġp ie
Ġt it
Ġche ck
op h
Ġpot ential
Ġbl ock
ĠM arch
i j
o le
Ġwr ong
du ct
n ers
ĠDep artment
Ġhig her
on se
Ġc red
Ġon line
Ġfoc us
Ġ2 4
Ġcons ider
ke y
Ġed uc
anc ial
ĠM y
n s
id ing
Ġc irc
Ġwor ks
Ġrel ig
Ġsh are
Ġp arent
c ial
Ġhe ld
2 5
Ġp red
ĠD r
Ġw alk
Ġwe bs
Ġl ed
Ġl o
ul arly
= =
Ġre ve
le ar
Ġst ay
ĠThe se
ove red
Ġst ru
Ġgo al
ĠRepublic an
Ġris k
Ġword s
ĠA ug
Ġre v
Ġso ld
Ġre view
ic ro
Ġcont ract
Ġresult s
Ġserv ices
Ġlaw s
The y
Ġc ode
c il
ĠM ich
Ġw ind
Ġfun ction
Ġa ud
ĠSy ri
Ġc e
p ut
Ġtot al
a ut
f ect
Ġart icle
Ġa ge
Ġapp lic
Ġmin utes
ur d
ĠM e
Ġperson al
il ities
Ġany one
u ary
i ents
it ution
ĠJ une
as ons
A d
ate g
Ġpr im
ang er
Ġtarg et
Ġd en
Ġear lier
u le
Ġfav or
Ġexp ress
h aps
Ġde ad
f er
Ġan sw
c he
Ġup d
Ġpop ular
Ġcomp ut
Ġv ol
pr il
Ġne cess
h am
Ġh y
Ġr ate
E S
ag ing
Ġtechn ology
ap an
Ġres pect
v al
ĠP e
Ġen vironment
Ġ201 1
P h
Ġrece ived
ĠN e
Ġexpect ed
ĠP ar
em ber
ud e
end s
Ġb ase
Ġcre ated
Ġsur pr
Ġant i
ĠS m
ĠJ uly
al t
et er
Ġproble ms
u el
Ġw ays
ip le
Ġp ort
act ion
Ġpriv ate
ĠD o
Ġsc ient
Ġincre ase
r ay
re et
Ġannoun ced
Ġcom ment
is l
Ġcan not
Ġeas y
A l
Ġsh ot
ĠCong ress
Ġquest ions
ĠE n
b it
Ġfor ce
ater ial
her n
Ġimp act
Ġe t
ĠM ond
n a
pl es
Ġp ack
Ġ +
ĠF acebook
Ġp ur
Ġl angu
at ives
ĠG od
ct or
Ġinvol ved
om b
av ing
ill s
6 0
le x
h ood
on st
ĠAust ral
Ġd iv
ues day
Ġexec ut
Ġmod el
it iz
Ġs en
Ġspe ak
Ġst aff
Ġex act
Ġc ivil
i res
Ġne arly
Ġty pe
our t
ok es
Ġorig inal
Ġc ases
Ġcont ent
Ġ19 7
Ġrelations hip
Ġter ror
ĠGo ogle
T o
Ġle ave
ĠFr iday
Ġresp onse
Ġcap t
Ġins ide
Ġ <
re m
Ġph ot
A t
ll ed
Ġf ans
ll ig
ĠA pril
ĠR ed
Ġintern ational
Ġco ll
Ġhe art
Ġa verage
Ġbro ad
Ġar rest
Ġus ers
ĠC ount
c ast
Ġc al
re l
Ġc ell
Ġwor th
Ġso ft
Ġ ur
Ġl iving
ĠE m
b or
ip s
Ġn ation
k y
Ġkill ed
Ġreport s
Ġ201 0
ã ģ
g ing
Ġbec om
Ġsour ce
ĠMond ay
ĠT uesday
Ġsub ject
e ch
Ġwork ed
at ural
est s
Ġest ab
Ġim medi
E N
Ġresp ond
Ġgl obal
Ġass oci
j oy
tem ber
Ġcl ub
op s
ĠAmeric ans
a el
Ġob s
it es
ĠP er
ĠP al
Ġch ance
Ġo il
ĠA ct
Ġab ility
Ġt akes
rough t
Ġwe ap
he l
Ġpr ice
ĠJ apan
olog ical
Ġdirect or
iz ing
Ġwork ers
Ġter ms
Ġt ou
Ġro ad
m on
Ġpubl ished
Ġde l
ĠWh ile
Ġph one
r ain
Ġcol lect
Ġfin ancial
Ġm id
os ition
Ġdec ided
is es
O R
ĠRuss ia
ĠS ome
ĠW ed
Ġm other
Ġs qu
Ġdef in
Ġl ack
ove mber
Ġ4 0
Ġg irl
Ġst ore
Ġg ave
Ġbu y
Ġinf lu
ĠCal if
Ġl og
Ġhappen ed
in o
Ġrequ ire
ĠN ow
Ġe mer
Ġf em
ĠS an
Ġcap ital
cl us
Ġfore ign
Ġcurrent ly
ĠO ff
b ased
Ġgo es
ĠB y
ov ed
ĠGe or
vert ise
Ġsit uation
ĠC or
Ġind ic
Ġoff er
Ġwho se
Ġ @
Ġt al
Ġm aterial
Ġl ives
Ġaff ect
ro wn
ough t
Ġpl ans
nes day
un t
es e
Ġar ri
Ġmem ber
Ġp ict
urs day
ĠF eb
Ġpartic ip
ru ction
Ġrec ogn
Ġturn ed
Ġmet hod
Ġev ents
ĠJan uary
ĠH ill
" .
Ġnet work
O ne
ct ions
Ġteam s
ĠS und
f ully
Ġb ank
Ġmeet ing
4 0
Ġn orm
Ġint rodu
Ġsim ple
ĠIs lam
Ġ ill
ĠA g
Ġh uge
ĠSep tember
ou d
Ġreg ard
Ġare as
Ġc y
ord er
ĠT V
Ġcou ple
Ġappro ach
Ġcare er
a ur
ĠAf ric
ĠG l
l oad
tt p
" ,
Ġde li
Ġr ace
l in
Ġperform ance
Ġp age
et y
ap t
ĠN ovember
Ġto ol
ĠDav id
Ġf elt
Ġquick ly
Ġm is
Ġnum bers
o or
Ġem ail
Ġ2 1
a ily
Ġor d
ĠE l
ist an
e es
Ġadminist ration
Ġh on
ĠWed nesday
Ġvict im
ĠP aul
Ġv ia
Ġimpro ve
Ġeng ine
Ġte xt
ch ie
---- ----
Ġf re
Ġp ull
ĠA ng
Ġr ound
b l
Ġbu ilt
Ġ2 2
Ġp ers
ĠEurope an
Ġd ig
ĠTh ursday
Ġf ather
en ed
orn ia
Ġl oss
av y
Ġth ous
Â Ń
ruct ure
Ġprodu ction
Ġb oy
um e
Ġhe ard
e ed
d own
S h
Ġeconom y
Ġen joy
ĠAug ust
Ġtr ade
ĠS ch
f ace
Ġwebs ite
im ent
Ġsec ret
Ġco ver
Ġreve al
Ġw ide
Ġbo ard
Ġm atch
A L
Ġallow ed
ĠC ourt
Ġhand s
Ġsp ent
Ġtra vel
Ġl ower
Ġb i
Ġre pe
at ory
Ġpo ll
Ġinclud ed
Ġst e
ce mber
ĠOct ober
Ġne igh
Ġleg isl
or ters
us es
Ġbeh av
ict ion
Ġkn ew
Ġwant s
Ġto wn
? âĢĿ
ight s
ĠBrit ish
Ġse par
en ces
es tern
Ġvis it
ĠCanad a
re ct
an ks
W ith
Ġper fect
Ġget s
ess ion
Ġmove ment
z e
is hing
g round
age ment
Ġtri ed
Ġc ause
âĢĿ .
g est
Ġ }
Ġfor ces
ĠSund ay
Ġen s
A fter
for ce
ce ed
Ġatt ention
Ġpartic ular
] [
en ing
Ġve h
Ġb ud
Ġf ear
Ġpop ulation
Ġvar ious
ĠU K
Ġre ach
m a
Ġlook s
Ġ2 3
ĠCalif ornia
Ġb rought
Ġv o
ĠK ore
Ġl ink
ib ly
) ;
ur ning
ar ily
ĠI S
2 00
Ġprev ious
E D
Ġm ention
ĠRuss ian
Ġmor ning
ĠQ u
c le
ide red
ĠS w
' d
Ġf air
Ġgrow th
ak er
und red
9 9
se qu
y ond
Ġpro gress
Ġfe ll
ra z
all ed
Ġs ong
i am
A C
Ġtr aining
h old
Ġs ize
u k
R e
ĠBl ack
c ies
ĠDe cember
ident s
f ield
led ge
ĠH er
Ġcont act
Ġdem and
Wh ile
Ġim age
Ġh or
Ġr ac
Ġh ot
ific ation
O S
Ġlead er
ec ause
Ġrul es
Ġl iber
Ġpre p
Ġse arch
Ġ ess
ĠP ost
s et
Ġc itiz
Ġup on
Ġstru gg
ĠSt reet
Ġlat est
c ome
Ġind epend
U S
u ments
in ks
ar th
Ġfeat ures
Ġco ach
ond on
ĠP ark
g es
T r
Ġf ast
Ġtalk ing
ĠC ont
ĠJ ew
Ġadd ition
Ġst ar
Ġw ond
ĠSen ate
d e
o o
I T
ĠP at
Ġspe ed
Ġex am
i ant
Ġcons idered
ra q
ic les
ar ies
Ġre b
om p
b ed
Ġlevel s
et h
ĠT imes
ĠCount y
llig ence
Ġsl ow
Ġinvestig ation
il le
Ġcon duct
ap h
ĠPart y
2 2
ĠK ing
Ġmed ical
Ġm ach
im ately
v ent
Ġa chie
Ġlangu age
atur day
Ġc ard
Ġs n
un k
Ġcrit ic
Ġs ort
op e
ĠCent er
ĠT ex
Ġp en
Ġu nd
w o
ĠInd ia
Ġp aper
ys is
I C
Ġ200 8
p ir
Ġcons erv
Ġparent s
im in
Ġsex ual
Ġsystem s
Ġpri or
h a
u it
as c
Ġdo ll
Ġwrit ten
u f
Ġsaf e
Ġb ox
Ġsp okes
ig r
Ġsee k
Ġs ens
Ġdoc ument
he t
id ge
e ared
Ġincre asing
Ġhe ar
an i
at form
Ġd raw
Ġse ven
Ġs on
ĠMus lim
Ġeff ort
ru ary
Ġjob s
sy ch
ĠI ran
Ġext reme
Ġprev ent
Ġlear n
in ing
Ġser ious
Ġreg ul
Ġin n
Ġr ange
ro om
r ast
Ġviol ence
ĠM ark
8 0
our ces
ĠI raq
it ch
O P
Ġsur ve
Ġcomplete ly
Ġcon c
Ġ ...
Ġ200 9
Ġmess age
t r
ic o
Ġ â
S he
Ġob v
Ġinterest ing
reed om
Ġsc reen
ab or
Ġopportun ity
ĠK e
ĠCh ar
e ff
Ġcl imate
2 4
Ġmajor ity
an ced
Ġpartic ularly
Ġdou b
Ġj ournal
ĠR om
Ġdes pite
Ġclaim s
Ġansw er
Ġsoc iety
m p
ĠL ondon
Ġdef ense
Ġcar ry
ent ially
am ing
Ġgu y
Ġext ra
ens ion
ĠDon ald
is ions
Ġattack s
Ġrequ ired
er ve
ren ch
ill ed
Ġbig gest
vertise ment
Ġexact ly
ĠE ast
Ġp aid
ĠM ore
i ers
ib r
Ġexper ien
Ġare n
ly ing
uc lear
ines e
Ġmod ern
Ġrem ain
Ġqu arter
Ġoffic ers
Ġh undred
Ġc ross
Ġex cept
ĠN et
ut ions
ar i
Ġt able
Ġpract ice
Ġn atural
in ally
Ġm iddle
er c
Ġ2 7
Ġcertain ly
Ġd ro
os es
ĠS aturday
Ġst ories
Ġhist or
Ġg as
Ġproduct s
Ġsur v
Ġlook ed
Ġsomet imes
n ces
Ġst uff
Ġsc ience
Ġfin ally
Ġus er
A M
Ġsum mer
Ġmov ie
Ġbl ood
osp ital
av es
Ġcommun ic
Ġa w
ous ly
Ġl ay
Ġchang ed
Ġon es
ad d
Ġlead ing
Ġdescrib ed
ĠS and
Ġim ag
Ġter m
Ġe ight
ĠFeb ruary
Ġpr ison
Ġcon vers
f l
n y
Ġdet ails
ic ks
Ġstart ing
ĠS pe
Ġqu ality
Ġocc ur
Ġp an
h ib
Ġshow ed
Ġn amed
Ġg iving
Ġu lt
Ġrem ains
ĠMc C
u ing
Ġreg ion
pp er
Ġprov ided
Ġcost s
ak ers
ĠS oc
ar r
Ġdam age
ĠM or
Ġm ob
Ġd anger
Ġf it
ĠT H
ĠT ur
Ġch ief
augh t
Ġpo or
Ġp ath
id a
Ġeduc ation
Ġmult iple
Ġcontin ued
et t
en ge
Ġgrow ing
N o
Ġdem onst
Ġ *
ĠC he
Ġpart s
y l
Ġ2 6
Ġwrit ing
Ġcom ments
Ġ2 8
Ġm ent
Ġmain tain
Ġass ist
Ġthink ing
ĠD es
in ary
ĠRepublic ans
ĠE ven
Ġpur p
Ġrequ est
Ġwr ite
Ġf ix
Ġit em
Ġp urch
ĠC oun
ab les
Ġd ied
ĠDemocrat ic
F L
co in
ag o
Ġread y
Ġwould n
Ġimp lement
2 3
Ġincre ased
Ġcult ure
Ġeff orts
Ġvot ers
u x
Ġc amer
Ġm ill
al y
.. ..
p re
op er
Ġread ing
mit ted
im inal
Ġf ile
Ġus ually
Ġcall s
Ġsp ot
Ġeffect s
I m
ĠG ener
z z
b an
Ġper haps
ar ian
Ġal one
f ort
il es
ĠF irst
ĠM on
Ġal though
Ġto wards
ĠLe ague
Ġcons ist
ĠB ill
ĠTex as
Ġse lect
Ġgu ys
Ġstand ard
ĠMich ael
Ġsub st
Ġce le
Ġbe yond
Ġdirect ly
Ġpl atform
ĠCh inese
Ġ( @
Ġh ous
us ing
it ute
Ġspe ech
te red
Ġreal ity
ic ated
Ġk ids
ĠJ ames
Ġav oid
Ġthrough out
Ġfoot ball
Ġstud ent
ar a
Ġcould n
row d
B I
Ġun f
f ord
Ġimmedi ately
ou l
Ġro b
Ġinclud es
Ġc at
Ġcon cept
Ġcent er
Ġcho ice
Ġsc ene
Ġcomple x
an ch
Ġadd itional
s p
Ġchall eng
ĠC ons
Ġw ife
Ġcl os
ur t
Ġt ro
Ġrec omm
Ġrese arc
Ġep is
he st
it or
Ġ ver
ĠMin ister
Ġs le
A ll
Ġcor por
ĠâĢ ¦
Ġdesign ed
ĠS er
ur g
ag on
Ġrem ember
Ġsaf ety
Ġsoft ware
ĠInd ian
w ise
Ġg one
Ġ il
ast ic
port s
Ġse ll
Ġto ward
Ġag ency
Ġt en
Ġoffic er
ac hes
Ġfig ure
Ġpie ce
Ġbr ain
om en
Ġbat tle
ĠJ ack
m en
Ġcoun ter
Ġdeb ate
air s
ress ion
st on
Ġthous ands
ad em
ru pt
Ġop in
Ġa head
ic ient
N ow
im um
Ġrel ative
ir th
Ġlet ter
Ġrece ive
Ġpress ure
Ġ Ð
Ġbl og
o es
il ies
amp ions
Ġ >
Ġs il
Ġmov ed
Ġla unch
Ġappear s
Ġo ption
ĠPl ay
Ġpass ed
Ġ ut
Ġcle an
Ġpre c
Ġst age
ro y
Ġ6 0
ĠB o
ĠS erv
ol ute
ĠI I
ate ver
ber g
O T
Ġproper ty
2 7
Ġhelp ed
am b
Ġdri ve
ĠApp le
j ust
Ġalleg ed
ĠG reen
Ġtw e
n ew
Ġdis app
Ġt our
Ġmean ing
Ġro ck
Ġdo g
Ġ x
Ġcr is
it ation
ĠAss oci
Ġsus pect
Ġd ate
ĠR ich
augh ter
Ġmov ing
Ġsc ore
ĠDemocrat s
Ġorgan ization
Ġs at
Ġcond itions
Ġtou ch
Ġd ark
Ġcomm and
ĠThe n
? "
Ġ ign
Ġre asons
Ġbud get
Ġp ark
m ore
Ġn uclear
Ġmy self
Ġn om
Ġde g
Ġhapp y
Ġdev ice
Ġdiffere nce
ri ef
ĠS im
Ġmay be
ch an
Ġbegin ning
A D
Ġcop y
Ġn ature
Ġfail ed
Ġf an
y an
w ood
Ġcharac ters
Ġc ast
Ġcomput er
Ġenc our
Ġa im
Ġtit le
Ġw all
Ġcomp ared
Ġle ague
ock ed
ĠSu per
iv ity
Ġest im
ĠV al
ĠSt ar
Ġcol lege
Ġey es
Ġsh own
ĠEng lish
Ġcent ury
Ġpower ful
ĠD ay
le ase
our ce
Ġb al
ain t
Ġlim ited
Ġy es
Ġb and
Ġcont ribut
Ġpos itive
Ġfor ced
Ġsc he
Ġnecess ary
Ġref er
Ġcandid ate
Ġst ra
Ġdis p
3 5
ci ent
Ġbook s
Ġtr ust
A P
ĠF rench
Ġlarg est
2 6
Ġar ch
ent y
Ġs al
ĠH ere
Ġconf erence
ĠR ober
a ud
Ġnot e
Ġanal ysis
uf act
Ġsp ending
Ġpresident ial
4 5
ĠO f
Ġcitiz ens
or ks
Ġschool s
ĠM art
ig ration
ĠSyri a
Ġth row
B e
ven ue
ĠB en
Ġa ware
Ġme ant
Ġexecut ive
Ġevent ually
M y
Ġphys ical
Ġfollow ed
Ġfe ature
ĠT or
Ġtreat ment
Ġc rowd
ĠW ind
Ġf irm
ĠA ir
Ġstre ng
Ġconf ir
Ġm ix
Ġb ott
er o
or ney
Ġ2 9
a res
ĠD is
Ġgr ad
Ġrelig ious
Ġeas ily
bo ard
Ġaut om
Ġes c
Ġp us
b and
I s
Ġco ol
et ro
Ġ19 6
Ġfam ilies
Ġil leg
ress ed
c raft
c ul
r ated
Ġact ions
Ġover all
ĠM ex
Ġallow s
Ġg ives
Ġfe ed
ĠÂ £
ub e
) :
Ġsus p
Ġyour self
B y
Ġd raft
b um
k en
Ġapp eared
Ġsm art
Ġdet ail
Ġinc ome
ir ing
Ġanal y
ĠB el
Ġsign ed
N ew
en cies
Ġcent ral
Ġide as
Ġan g
ĠGo vern
Ġsen ior
Ad vertisement
Ġfre qu
Ġweap ons
Ġh ar
I D
Ġdis play
Ġprom ot
Ġn ice
Ġcred it
Ġdec ades
Ġp sych
Ġpolit ics
D on
Ġcr ime
O M
E C
Ġus es
in n
Ġdo or
Ġdis e
ut y
ĠIntern ational
Ġun ique
2 8
Ġs we
Ġal tern
Ġl if
A ccording
m ar
Ġd rop
Ġs ales
A r
Ġdevelop ed
res h
Ġcustom ers
E T
Ġbenef its
Ġconf lic
ur ance
Ġrel ated
Ġcris is
ĠS chool
Ġm ist
er ry
i able
Ġpred ict
Ġnot ed
ĠC ap
2 9
ĠAustral ia
ĠE U
Ġtr uth
b ox
Ġgo als
in y
Ġindividual s
Ġch arge
ĠE arth
p art
Ġbe aut
Ġcontin ues
on ents
ĠUn ion
ĠAr ab
Ġobs erv
Ġr ap
Ġchall enge
Ġst o
n own
Ġapp arent
ĠAng el
ite ly
ĠSm ith
Ġl ic
Ġproject s
Ġpe ace
Ġmeas ure
ĠPol ice
Ġcor rect
ot i
Ġinte lligence
ĠChrist ian
Ġprev iously
ĠGerman y
Ġfull y
Ġr ule
Ġman ager
Ġbro ther
Ġr ates
Ġadv ant
U n
ch ange
Ġexp and
Ġcle arly
Ġre form
Ġl ines
n et
Ġsuccess ful
ri age
Ġhigh ly
Ġlarg er
ound s
2 1
Ġtr aff
Ġsp read
i ance
Ġseem ed
ĠCoun cil
k i
Ġstra ight
S ome
ĠCom p
Ġcr iminal
Ġmin or
Ġem b
ĠGeor ge
Ġprogram s
ic ed
at tle
ow ers
ĠFr anc
Ġinc ident
Ġres ources
ĠT om
Ġgreat er
Ġprim ary
I A
in ated
ant ly
Ġknow ledge
Ġstud ies
wh ile
d om
Ġsa ve
or ter
Ġwe b
ate gy
Ġke pt
Ġatt ract
ĠFl or
ol ic
Ġsp ir
qu e
Ġem ot
Ġcol or
Ġfe et
e an
ĠC r
se y
Ġr are
Ġre ached
sec ut
Ġar m
ĠH igh
lev ision
ĠIntern et
ĠBro wn
od ay
id ers
os h
r s
Ġfavor ite
Ġpl aces
ĠR ec
Ġreg ular
w ide
ot a
Ġman ufact
Ġla un
ĠD ef
1 00
Ġs end
Ġpre m
ĠH am
ro ll
lic k
ic it
Ġknow s
Ġshoot ing
Ġactiv ity
Ġp un
Ġsour ces
Ġnorm al
ic ago
b on
ter m
on ent
ing ly
s er
ĠA nt
v ille
Ġstat us
Ġfight ing
Ġvo ice
Ġr ise
oc ks
Ġf ine
Ġown ers
Ġca used
Ġclaim ed
ĠM ac
Ġen em
Ġlit er
ĠR ob
ĠGener al
a ith
E O
Ġopt ions
Ġ200 7
Ġinte gr
eng th
ĠU p
us ion
Ġsp end
ĠG old
ad o
Ġc ities
m iss
Ġorgan iz
IN G
Ġend ed
il ed
Ġresearc hers
Ġcall ing
Ġsh ut
Ġref lect
ĠL a
m ission
P ro
m ark
or g
âĢĿ ,
ol es
7 0
ro id
Ġpr ices
ĠE very
Ġal bum
ĠF rom
if ying
Ġemploy ees
Ġfem ale
ĠEng land
y a
ww w
Ġv irt
Ġha ven
Ġe le
Ġra ised
mit tee
Ġj ump
u ana
3 3
Ġsupp osed
it ness
Ġhapp ens
Ġadd ing
Ġpolic ies
Ġn ames
Ġcharg es
ĠB re
Ġpro s
Ġtr ou
rib ution
ic a
um an
Ġbas ic
iver se
N ot
ĠM ag
Ġconcer ns
Ġtrad itional
Ġwa it
ing er
Ġabs olute
Ġac qu
Ġpl ant
Ġh ospital
Ġfund ing
r am
ĠB ay
Ġsl ight
Ġcom mer
ro l
Ġpr int
Ġpat ients
S c
Ġauthor ities
Ġmin ister
ve re
Ġcreat ing
Ġh ttp
Ġf reedom
ĠA P
Ġme chan
Ġsc en
Ġst yle
ĠM o
Ġsee ing
Ġgr and
. âĢĻ
Ġbe at
Ġl ik
ri an
on a
Ġst ation
ĠSc ott
se e
Ġp ush
ij uana
Ġbehav ior
Ġbe g
Ġle aving
Ġc ry
Ġim pl
Ġb irth
Ġ ir
Ġact ual
E L
Ġens ure
p en
Ġoff ered
Ġagree ment
ĠFlor ida
Ġe th
ĠB er
so ft
ĠHill ary
Ġpost ed
Ġgo ld
ĠS un
Ġweek end
Ġg reen
ĠM ost
ĠRe g
al se
Ġwe ight
O U
Ġey e
. '
ac ing
Ġdeter min
Ġv ac
H ere
Ġreveal ed
ĠWe ll
Ġapplic ation
Ġmost ly
Ġval ues
Ġprop os
it ude
ĠA lex
ab y
Ġwill ing
ear ch
Ġr ank
Ġad op
ĠA ccording
Ġad ult
tt ps
Ġestab l
Ġrecord s
âĢ ¢
5 00
Ġen force
Ġpict ure
Ġbelie ved
ĠL et
Ġm er
p ri
u ild
Ġb rief
Ġlear ned
ĠL aw
Ġinst all
Ġstr ategy
Ġapp l
S A
ign ed
Ġcho ose
ist ry
Ġd ire
Ġwond er
Ġqu al
Ġmass ive
c her
Ġdev ices
Ġbenef it
Ġw ild
Ġpart ies
ĠCh icago
Ġlaw y
Ġun s
g en
ĠPe ople
Ġc ars
ĠTr ans
ĠPh il
Ġarrest ed
ĠM at
Ġm ount
Ġwh atever
Ġw at
ĠO h
ĠFr ance
Ġstre et
Ġ ;
Ġprov ides
Ġwh om
Ġass ault
9 0
t ies
li ament
Ġask ing
Ġinflu ence
Ġjud ge
Ġl ose
Ġf at
Ġfeel ing
st e
Ġoper ations
Ġprodu ced
Ġtem per
c ont
Ġcrit ical
ĠSec ret
ĠL ou
Ġneg oti
Ġm ission
Ġent er
ĠB ush
E x
Ġim ages
Ð ¾
ĠSt ud
Ġconfir med
p oint
Ġshow ing
I L
ĠP ort
Ġdist rict
ri ption
Ġrun s
Ġpat tern
Ġt end
Ġb order
Ġres idents
a e
or ial
ra v
Ġdeb t
How ever
Ġ Ã
ak ed
n o
Ġc ru
Ġte ac
m ine
ĠCom mittee
l a
ud d
Ġopp osition
Ġcele br
ĠW all
ĠHe alth
Ġse ction
Ġdef end
Ġet c
est ic
Ġprodu ce
L e
ic ial
ĠIn te
ĠComm ission
Ġdr ink
Ġindepend ent
ĠM od
r ont
ce ll
ĠWh y
Ġbr and
ent ed
ag s
u gg
Ġc ore
ĠP ress
Ġt ick
Ġdig ital
ĠB it
Ġhe ro
Ġadv oc
Ġdoll ars
oc r
ri al
Ġeffect ive
Ġsol ution
ĠM al
Ġv ill
Ġinterest ed
ĠS am
ĠKore a
B A
Ġhig hest
ord s
Ġmem ory
Ġopen ing
Ġwor se
Ġlear ning
Ġrespons ible
Ġtri al
Ġd aily
Ġk ick
Ġthe ory
ĠO ther
Ġoff ers
ĠPal est
Ġrepl ace
Ġrest rict
ĠG et
Ġm ur
ĠOff ice
Ġag reed
Ġte levision
ĠFranc is
ci ence
ĠM icro
ĠB ecause
Ġocc as
C C
S T
ill ing
Ġv s
Ġdet ect
Ġtr ain
as te
Ġinvest ment
Ġtyp es
i ation
ĠW estern
ak s
ic ians
Ġch air
Ġmil es
Ġmill ions
C on
ur ies
Ġche m
ĠJust ice
ĠD el
Ġgener ally
Ġbas is
Ġprop osed
Ġ8 0
ĠM ike
ĠM il
ĠC up
The se
i pe
Ġhe avy
Ġexpl ained
Ġm ap
ĠO ur
A A
r ad
Ġd er
Ġb ur
o ly
w in
Ġpart ners
ĠAd d
and er
Ġopin ion
Ġdef e
Ġon to
Ġprot est
____ ____
G et
Ġassoci ated
Ġl oad
r ig
az ing
ĠN FL
r ate
o om
4 4
ĠF ound
Ġm ale
Ġbecom es
Ġre ject
v est
out hern
== ==
ĠSec urity
Ġco al
Ġob tain
Ġdest roy
Ġadvant age
Ġass um
ĠL iber
Ġcond ition
Ġannoun ce
Ġhundred s
ad ing
Ġachie ve
Ġopen ed
C l
el ine
Ġunderstand ing
od es
ĠJohn son
com ing
ic ip
Ġsur round
we ll
ort hern
ber t
u pp
Ġinit ial
ĠB ig
Ġsle ep
3 6
Ġsh ip
re y
Ġmar riage
Ġman agement
ĠWind ows
Ġth us
Ġlim it
Ġb orn
3 2
Ġbecom ing
k nown
Ġph oto
Ġeas ier
F C
ĠG reat
Ġr at
Ġlegisl ation
Ġcontro vers
Ġun like
Ġelect ric
ĠM any
Ġcamer a
wit ch
Ġacc used
Ġs pl
Ġneigh bor
Ġdou ble
Ġ ice
Ġspec ies
Ġsh ared
Ġjo in
Ġilleg al
Ġ3 1
ĠL ab
Ġ200 6
M r
Ġmach ine
Ġh arm
Ġserv ed
ĠJ er
G B
Ġextreme ly
ol f
Ġact ive
Ġ3 5
Ġser ve
Ġdoc uments
ĠIslam ic
Ġfr ame
z a
Ġstri k
le vel
ĠD ist
Ġaud ience
l ant
B S
Ġloc ation
ĠA M
Ġscient ists
Ġbott om
Ġvictim s
or row
Ġwe alth
Ġprofess ional
i h
Ġres ist
Ġredu ce
Ġbelie f
Ġn ine
Ġsol id
Ġwin ning
Ġmar ijuana
ĠU k
Ġneg ative
7 5
if ul
land s
Ġcommun ities
Ġreturn ed
ortun ately
Ġb ed
ear s
m et
Ġinc red
ĠP M
ĠInst itute
Ġch urch
P S
Ġdep artment
ir gin
ĠSand ers
Ġr an
Ġvict ory
Ġpurp ose
Ġ9 0
ĠComm un
Ġam b
Ġveh icle
Ġintern et
Ġleaders hip
ĠH all
ist ics
i os
Ġb omb
Ġmob ile
gh an
Ġinst ance
i pped
3 8
Ġsepar ate
Ġexist ing
Ġnot ice
Ġhe aring
Ġd ie
Ġexpl ain
Ġdoub t
Ġf aith
Ġte ach
h ouse
ĠY our
at ically
ĠF in
Ġepis ode
Ġwatch ing
Ġcom fort
ĠCanad ian
ĠB ank
ar an
Ġnot es
ĠA tt
ĠE v
Ġf resh
Ġun c
Ġrad io
ĠIn c
Ġview s
Ġput ting
as y
Ġsupp orters
Ġconserv ative
Ġp urs
Ġarg ument
om as
ĠF ox
Ġm icro
ar io
ac ity
Ġlaun ched
w orks
sc rib
O L
Ġapp eal
ili ar
Ġitem s
Ġcommit tee
ĠAr t
res p
ĠM ad
wh ich
Ġdefin itely
Ġdanger ous
ill er
P A
z en
Ġco verage
Ġdire ction
ĠO ver
Ġs un
Ġcharg ed
Ġfl oor
Ġm ax
ograph y
3 4
E M
ĠCar ol
ĠCh urch
Ġiss ued
Ġdrug s
Im age
i pp
Ġt ask
Ġback ground
Ġcompet ition
Ġtre nd
Ġst ated
v ention
and om
ad a
Ġtraff ic
ĠF BI
Ġcommer cial
ĠD irect
ur b
N A
Ġsp oke
in ct
Ġtrans fer
ct ors
Ġsuggest ed
Ġst ructure
Ġset t
g u
ad y
Ġsit es
Ġh us
Ġn orth
ĠS ince
ĠL ike
Ġrest aur
ampions hip
Ġlab or
Ġdec ade
Ġrepe ated
ĠG ame
Ġre act
om an
Ġc ards
Ġanim als
go ing
Ġno vel
b ut
rib ute
Ġd aughter
ant ed
ĠS l
Ġdri ving
Ġcl osed
Ġwor st
Ġcont ain
Ġentire ly
Ġd ed
ĠBrit ain
g ency
Ġdri ver
g a
ĠW il
Ġdise ase
Ġn or
Ġtell ing
il ing
Ġsmall er
Ġg e
Ġdisc overed
B l
ak istan
ĠP ri
A meric
ĠL os
Ġh ack
! âĢĿ
he m
f erence
i us
ĠQ ue
s pe
Ġf alse
Ġc ash
e qu
Ġconcer ned
ul f
a it
Ġpl ays
Ġsur face
se mb
ann el
Ġsupport ed
ul ated
Ġtool s
Ġcomp ar
oy al
ĠCh ris
Ġexper iment
Ġfind ing
Ġtrans port
n ight
Ġc ateg
ã Ĥ
Ġas pect
# #
Ġbusiness es
Ġ7 0
ĠU N
Ġfar m
Ġple ase
Ġold er
az on
ph one
h ow
Ġactiv ities
Ġrequ ires
C H
Ġg ay
it t
ĠJ ones
ibr ary
d o
Ġstreng th
4 8
Ġwe l
and on
Ġins urance
Ġcon sequ
3 7
Ġlarge ly
Ġmur der
N N
ic i
5 5
Ġc aught
Ġex erc
Ġcandid ates
k ins
ĠIsrael i
Ġallow ing
ic y
Ġbl ue
ĠA re
Ġann ual
ĠK en
Ġtest ing
ĠT re
oss ible
ĠS up
Ġstr ateg
Ġra ise
Ġst ock
o very
ĠRober t
iz es
Ġdec isions
Ġacc ur
r ick
Ġcon text
l or
Ġf uel
ĠA c
S P
os ure
ĠUk rain
Ġconcer n
Ġaff ord
Ġbelie ves
Ġconst ruction
Ġtr uly
** **
Ġt im
ĠT y
ĠM iss
Ġjust ice
igr ants
Ġgener ation
Ġhigh light
Ġun it
r im
Ġpres ence
ĠJew ish
ang ing
! !
ĠS il
Ð °
ter y
Ð µ
cept ion
ĠAfric a
Ġgu ess
an cy
Ġw itness
it able
Ġhold ing
ĠG ree
Ġestab lish
Ġl ength
Ġplan ning
ĠAfric an
Ġse qu
av a
ck now
Ġs an
Ġpl aced
Ġref uge
Ġc atch
ĠAf ghan
in ter
ĠAssoci ation
Ġtell s
âĢ ĺ
Ġsc ale
Ġspokes man
b re
n el
Ġr ough
Ġatt end
oll y
ĠV er
Ġcell s
Ġjo ined
Ġmention ed
Ġinterest s
Ġab use
pect ive
ĠJ im
M ore
Ġhas n
ĠP C
Ġinit i
Ġenforce ment
ĠP re
Ġk id
ĠG OP
Ġintrodu ced
Ġdeli ver
Ġconflic t
ĠM er
Ġr out
ĠMicro soft
Ġph il
âĢĶ âĢĶ
Ġupd ate
ro s
Ġmiss ing
Ġprov iding
Ġwa iting
Ġcan cer
3 9
Ġrecomm end
ocr acy
Ġestabl ished
e y
is ation
Ġe at
b our
ĠY es
Ġocc up
ĠFr ank
ĠJ eff
ĠAngel es
Ġrem oved
Ġ200 5
ul a
ĠF ore
Ġoff ensive
ĠInst ead
ic on
Ġinj ury
Ġsp orts
4 7
Ġf ant
Ġdiscuss ion
l ig
Ġoper ation
Ġdown load
Ġuse ful
Ġnews p
Ġconvers ation
Ġhom es
ron ic
Ġs outh
Ġc ook
ĠC EO
Ġass ess
ĠG roup
it z
form ation
Ġban ks
ont o
Ġsto pped
ĠCon st
Ġobv ious
ic ations
Ġmeas ures
ĠK h
Ġmod els
Ġfour th
ĠM P
O ur
se ason
D A
wh at
Ġb ul
and a
Ġ201 8
Ġfil es
Ġgirl s
ĠLou is
Ġst ick
c ks
v ant
az ine
m ail
um n
Ġman aged
it er
app ed
ĠPalest in
ot ed
ĠT im
Ġfig ures
om s
Ġident ified
P l
Ġgr aph
k in
ĠJ ud
ĠS al
Ġfin ished
ig an
Ġfund s
re al
ĠP akistan
Ġset ting
Ġconc lud
Ġpre fer
Ġha ir
Ġcommit ted
ĠMex ico
4 9
Ġsk ills
Ġappro pri
Ġspir it
ĠR ock
Ġve ter
Ġfoc used
Ġarri ved
ĠTH E
Ġhous ing
ĠLe g
ĠV irgin
g ers
Ġkeep ing
Ġthere fore
Ġa cknow
ul ate
D es
Ġpart ner
Ġex clus
ĠAnd roid
ens es
up s
Ġear th
Ġtrans l
out s
pl ace
Ġt ough
ĠJapan ese
Ġ200 0
Ġrelative ly
Ã ¡
ĠSup reme
w ing
ow l
Ġident ity
Ġfeel s
ĠM et
Ġother wise
r d
Ġsurve y
R A
ĠR yan
oc al
ic ation
itution al
Ġprote ction
ag n
Ġex change
Ġown er
is f
Tr ump
Ġstep s
ĠIn ter
Ġtri p
im b
Ġhus band
Ġtwe et
g ar
Ġconnect ion
ĠAr my
Ġslight ly
ĠPro f
ere nces
k a
e ah
Ġwe ak
ĠGovern ment
ver se
" :
Ġcirc um
Ġcl ick
Ġele ments
ĠRich ard
Ġstri ke
Ġphot os
Ġme re
Ġdef ensive
ĠN or
dd en
Ġg ain
Ġf le
Ġdep end
uck y
Ġcol lection
ony m
hen s
Ġkill ing
Ġro ll
igh ter
G o
Ġcor ner
ĠMart in
anc ing
od ies
Ġsuggest s
u ct
Ġag gress
w ith
pro f
Ġgu ard
Ph oto
Ġg ender
m akers
ĠCol lege
Ġcomm ission
ĠAl though
r ange
Ġd at
ĠS ur
4 6
ĠI r
ĠD ec
Ġment al
ic ide
Ġam azing
re es
ĠS ub
h i
m as
Ġplan et
ĠTe am
ren cy
ĠO ut
Ġbig ger
Ġfail ure
ĠJ ose
Ġsupp ly
Wh y
an ia
Ġstart s
Ġs ides
v is
hed ul
Ġfam iliar
Ġrem ind
Ġsu st
il s
Ġspe ct
u ate
Ġspe aking
Ġtal ks
Ġhappen ing
y m
Ġorganiz ations
Ġh ate
gy pt
Ġwind ow
Ġar my
ĠG ood
ĠJ oe
Ġn one
u ke
ĠP et
Ġtax es
Ġplan ned
Ġthan ks
ĠM ary
Ġst ruct
Ġp it
Ġdec ide
Ġsu dden
Ġw ish
Ġcre w
Ġcar ried
l o
ĠM ont
ost on
Ġp et
a wn
ag ues
yn am
Ġreg ist
T C
Ġmult i
id ering
Ġhelp ing
an o
L ast
Ġa ward
Ġstand ards
Ġ3 2
ĠF ire
g n
Ġrev olution
Ġenvironment al
ĠWe b
p m
ars h
ĠTh omas
ol it
Ġsc ript
ol a
Ġsecond s
r un
ĠRes earch
Ġscient ific
ĠB ern
Ġimm igration
Ġstand ing
ĠThe ir
Ġ4 5
Ġqu e
st ream
oc ol
Ġbe er
Ġdom estic
im al
ad ium
Ġp air
ut ers
ĠAl so
f e
ĠSecret ary
ĠU s
Ġac adem
Ġco ld
Ġvar iety
Ġmark ets
Ġs ch
] .
H L
Ġter rit
Ġdro pped
Ġaccount s
! "
Ġfil ed
er ous
ack s
ill a
Ġbal ance
el ess
Ġimp ossible
ĠT er
a ven
Ġinter act
Ġr ou
Ġneighbor hood
are n
Ġdeg ree
R ead
ĠAt lant
Ġturn s
ore s
it ect
Ġposs ibly
Ġapp re
Ġoper ating
Ġpr inc
Ġaltern ative
Ġun ion
Ġvot es
Ġv ul
ad er
Ġprofess or
Ġt ack
ĠServ ice
Ġincreasing ly
ay er
ru it
Ġapp ly
Ġfell ow
Ġcut s
ste in
Ġhon est
Ġun ivers
ĠPr ime
Ġser ver
is er
Ġdevelop ers
ar ks
ĠSyri an
ab b
Ġapparent ly
Ġl ived
Ġchang ing
Ġwor ry
rast ructure
ĠCarol ina
Ġtest s
Ġun its
Ġr ich
ĠT wo
c ious
ict ed
F rom
ad ed
Ġhum ans
I M
ĠFound ation
ĠM os
Ġag encies
Ġsound s
as hed
Ġtw ice
Ġult imately
ob by
Ġl osing
Ġphil os
Ġauthor ity
Ġsold iers
ã ĥ
Ġanim al
Ġat h
ĠIm ages
Ġset tle
Ġsc hedul
Ġm ut
Ġcol le
Ġcorpor ate
Ġabsolute ly
Ġhealth y
Ġpay ing
o ch
Ġequ ip
i ams
Ġdevelop ing
Ġse a
Ġclos er
ĠD en
Ġinn ov
ĠT ime
rel ated
Ġseek ing
Ġregard ing
rou d
c oh
Ġsk in
Ġexp ensive
ans ion
Ġposs ibility
Ġbeaut iful
Ġrelig ion
ĠCent ral
Ġap art
Ġfund ament
Ġexper ts
Ġsol ar
6 5
Ġy ards
Ġwrit er
Ġfl ight
Ġv ast
ĠDist rict
ĠL ast
Ġde ploy
Ġad just
O f
Ġintern al
ĠU nder
ĠL at
3 1
ĠP eter
ĠPl an
ap ers
Ġimag ine
ĠJ on
I V
Ġapplic ations
i ot
olog ies
Ġv ision
l ook
st ate
os en
ĠFrancis co
ĠTor onto
d en
Ġsit ting
Ġtr ail
Ġun less
ĠUS A
ĠJ es
ist ed
Ġhe at
Ġg ar
Ġ200 4
E ven
Ġrespons ibility
Ġcap acity
ĠD an
I P
at ures
ĠM iddle
Ġer ror
ain e
i as
Ġf ol
Ġsy mb
Ġar ms
Ġp il
p ire
Ġc overed
idd en
ĠB ur
Ġapp oint
Ġfam ous
ĠC amp
Ġfor ms
u zz
N D
Ġun iversity
Ġt ight
t op
Ġpresent ed
ort ion
ov ing
en ced
ĠS T
ĠE gypt
Ġear n
ĠP ut
Ġconv ention
u nder
J ust
ĠP ublic
Ġsurpr ise
Ġatt orney
Ġelect ions
Ġestim ated
Ġf if
ĠA ri
g l
Ġte en
Ġinst it
Ġveh icles
rib le
ĠAm azon
ro ad
Ġint ended
.âĢĿ <|
Ġo dd
Ġr id
Ġhelp s
Ġoccur red
p erson
Ġstre ets
ust er
h and
in i
ĠB oston
ĠS ol
Ġ= >
= "
s en
ĠM ur
Ġsp ort
Ġdeter mine
ress ive
ĠBit coin
Ġexper t
all s
Ġcons ult
ur ation
L et
Ġbro ken
Ġgu aran
le ts
Ġf ired
Ġt on
Ġfl ow
Ġdom in
ĠG al
in te
por ary
ed er
L E
Ġsh all
Ġres erv
Ġtro ops
I ON
ĠTh ose
Ġhy p
U p
Ġn ar
ter day
Ġpie ces
ĠCh ief
Ġprep ared
ĠM ass
ĠC ath
Ġrap id
or age
ĠJ o
ri e
Ġloc ated
ĠSoc ial
Ġb aby
-------- --------
Ġcon clus
Ġbring ing
Ġpro ve
Ġspecific ally
ĠAn y
Ġpot entially
Ġse ctor
anc he
Ġr andom
Ġj ail
O W
Ġse lling
ĠV e
Ġgovern ments
ĠO nce
Ġsc r
A b
Ġequ al
N e
cl ass
Ġf aster
Ġhe av
ĠS pr
Ġbo ost
use um
ve y
w ar
Ġcl in
Ġpropos al
ot y
Ġfact ors
Ġpl enty
T H
Ġequip ment
Ġcoun cil
Ġer a
Ġinf rastructure
D o
Ġst ress
ph as
Ġst ars
ĠJ ournal
ĠR ub
end ment
ĠVirgin ia
Ġb reat
Ġpro secut
Ġvot ed
Ġoff ering
Ġcar bon
in ent
Ġexpress ed
Ġcomb at
Ġvul ner
ĠPar is
Ġbro ke
( )
ure au
Ġcl ot
our s
ĠF ederal
Ġrul ing
Ġret ail
ĠGu ard
Ġref used
Ġdr am
Ġelect ed
ĠO pen
ĠR iver
E very
Ġsec ure
ce an
Ġse asons
Ġconduct ed
, '
Ġchalleng es
Ġrem ove
is her
h t
Ġmethod s
Ġweap on
n oon
Ġpoint ed
ĠIs land
Ġm aster
Ġrem ained
ĠAustral ian
Ġpr ime
EN T
Ġtr ig
ĠM el
Ġpos itions
ĠC ru
Ġinf ect
Ġd in
Ġcritic ism
i pping
F irst
ock ing
ĠMed ic
ĠF e
ĠP lease
t ion
ro g
on om
I G
Ġs ale
ol ved
Ġcult ural
th at
Ġwere n
Ġsignificant ly
Ġb row
et ic
Ġorig inally
S te
ĠD uring
Ġst ret
Ġaffect ed
Ġappear ance
Ġc as
ĠS ant
Ġt ourn
Ġfac ing
Ġgreat est
Ġfin ish
ĠLe e
Ġyou th
y r
Ġte le
ĠWh o
ĠC ur
Ġpercent age
ĠPh oto
c ol
Ġdetermin ed
Ġsign s
Ġinvol ve
9 5
ce l
Ð ¸
6 4
Ġthan k
Ġb ought
Ġ5 00
ly n
ĠS ing
stand ing
Ġchem ical
ash ion
Ġsh ape
Ġv ir
Ġreg ime
Ġg rew
p ired
Ġrem aining
ĠSte ve
ly mp
Ġmin imum
ĠS aud
re ens
Ġind eed
Ġd ream
ri er
al ing
S ince
Ġm arg
S p
ĠR o
ĠB oth
> >
Ġmod e
Ġher self
Ġvot ing
ĠCol or
Ġobv iously
ĠFor ce
Ġredu ced
ĠN ov
ord in
ĠR em
Ġw ood
Ġrecord ed
Ġarg ued
Ġ199 0
Ġre venue
Ġt act
Ġwe aring
igh ters
Ġlead s
ed ia
Ġh un
Ġpl us
Ġpolit icians
Ġs witch
Ġcont rast
Ġhand le
Ġpurch ase
Ġth r
Ġsub s
Ġcon cent
Ġpro ced
g ment
Ñ Ĥ
Ġag ent
ar p
ĠWill iams
Ġappre ci
ed s
Ġexperien ced
Ġh urt
Ġexc ited
Ġvide os
Ġh ttps
coh ol
Ġsupport ing
D P
ĠH aw
m m
ĠF ree
Ġsurpr ising
ll er
Ġmin ute
od d
Ġexpl os
ĠP ac
Ġbel ong
Ġconsum ers
Ġident ify
Ġcons idering
ow nt
ĠCons erv
ap ter
Ġair craft
Ġa id
Ġpull ed
Ġre nt
C L
Ġbas ically
Ġdiffere nces
og ue
ĠB ook
Ġgl ass
h ttp
Ġafter noon
ĠR ad
Ġsh ift
Ġdis s
Ġend s
ess ions
Ġt urning
Ġb ound
Ġfil ms
Ġsp ring
Ġdep art
Ġpros pect
ru ption
k et
ĠChar l
h ab
0 5
l ife
Ġtre ated
Ġacc ident
, [
0 1
Ġmot iv
Ġlist en
Ġse at
ĠP ower
ut s
Ġcomb ined
Ġconst ruct
I nd
Ġser iously
Ġpriv acy
app ing
Ġeven ing
he red
Ġopportun ities
as p
h y
Ġstrugg le
Ġ19 5
Ġpan el
Ġenem y
Ġlot s
Ġcomple ted
ĠD aily
Ġvis ual
H is
p et
Ph one
P e
Ġtalk ed
pt ed
Ġhop es
or al
Ġpass ing
Ġ id
Ġapp s
os ite
ĠSte p
P D
Ġcal cul
Ġm ort
An other
Ġwide ly
ens ions
Ġemer gency
ĠH ol
ĠSh ow
Ġe lement
Ġsu it
am m
Ġa st
ang ed
S S
uc ks
al ed
Ġp owers
ĠR el
ĠB BC
Ġfl at
ĠO lymp
Ġb urn
T V
Ġdisc l
Ġpl ants
ob e
ĠSp ace
at o
Ġliber al
ra ud
Ġopp osed
W ell
Ġpro ceed
om pl
Ġcopy right
ok ing
ĠPro ject
Ġadv ance
Ġfact or
Ġdist ance
Ġ200 3
ive red
Ġdis miss
pl om
Ġattempt s
Ġt un
ĠB et
ĠR oad
ab ilities
A m
ĠI N
Ġtrou ble
ribut ed
Ġh ol
un ction
Ġcoll abor
Ġdef ault
id el
Ġz one
Ġenc oun
ĠJack son
Ġup gr
ra wn
it a
Ġre action
Ġst orm
Ġrep orters
ĠM em
Ġfr ust
P R
ne ll
m osp
ad ow
Ġwrit es
m ond
ain ts
Ġtyp ically
l ines
ĠT oday
resp ond
U T
Ġp ages
Ġinst ruct
tern al
Ġref erence
Ġpack age
Ġb odies
z er
Ġmat ters
st s
4 2
f ree
Ġden ied
c are
ed d
A pp
Ġqu ant
Ġdisapp oint
Ġse m
Ġexpl o
et te
ĠN AS
Ġopt im
ac he
Ġqu iet
Ġent ertain
Ġm al
Ġrespond ed
Ġappro ved
ĠTur key
Ġsat isf
ap ed
R ep
Ġbroad cast
es ters
D e
Ġinstit utions
Ġad vert
Ġstand s
ĠDirect or
Ġset s
est ival
Ġel imin
is ters
raz y
Ã ¤
ĠP enn
Ġval id
h ost
Ġre new
ĠOh io
C ont
00 00
Ġspl it
Ġse vere
ĠWill iam
Ġs ac
ab in
Ġcap able
ĠM att
Ġ //
Ġ200 1
Ġp itch
ani el
Ġcapt ion
Ġcl oud
Ġl oved
Ġtechn ical
Ġg iant
p ass
Ġcan n
Ġtrad ition
w ater
Ġb ull
Ġconf ident
ell y
u ous
Ġconf idence
Ġnum erous
Ġreported ly
Ġfac es
] ,
w rit
Ġwe ather
Ġf ly
ĠM a
Ġtrans ition
r id
Ġ3 6
ĠSy stem
un te
ĠAfghan istan
Ġg ra
ĠS qu
Ġwas te
Ġcre ation
Ġpers pective
Ġun able
Ġfor get
ĠLab our
4 3
ĠY et
as tern
em ploy
." <|
ok en
ĠMed ia
ang ers
I I
Ġc raft
Ġsubst ant
Ġco oper
Ġviol ent
Ġsuff ered
il it
Ġm and
amp ion
Ġco ast
Ġpict ures
Ġexperien ces
Ġappro x
Ġrou te
ab led
r ant
8 8
Ġfl ag
Ġadv ice
ĠAnd rew
us iness
Ġdecl ared
ĠW al
Ġord ered
ĠH uman
raz il
Ġcr imes
Ġco ff
Ġp roud
is hes
Ġreport ing
Ġmess ages
se x
Ġcircum st
Ġfind ings
ĠL in
Ġev al
ul ations
R es
Ġex cell
O ver
Ġdecl ined
Ġexpl ains
c an
Ġdel ay
Ġ \
ĠF ollow
Ġnewsp aper
ound ed
Ġconnect ed
il ty
Ġshould n
ev in
ov es
Ġon going
Ġv an
du le
Ġmov ies
Ġpick ed
res ents
7 7
Ġad mitted
Ġdel ivered
D uring
Ġgun s
ĠM L
ion ally
ĠSc ot
Ġwalk ing
Ġpr in
Ġag ents
c alled
Ġedit or
Ġthough ts
Ġmar ried
ĠT ra
Ġa uth
Ġem ails
Ġappropri ate
Ġem phas
u ations
Ġed ge
Ġarch itect
ĠGr and
Ġle aves
Ġupd ates
Ġacc ompl
O D
Ġg ather
ĠMuslim s
Ġfor g
ans as
ĠW ood
Ġquarter back
Ġs ession
o oth
4 1
ar n
ĠTe chn
Ġpo ol
ĠS cience
c os
Ġinj ured
Ġpublic ly
ell ow
ĠS ov
Ġstate ments
Ġper man
Ġleg it
ar l
ner gy
M A
Ġconf irm
ĠL ake
Ġour selves
O ther
Ġreal ize
Ġdri vers
Ġro t
ĠA v
T e
ĠD ou
T A
m ates
, âĢĻ
Ġar med
ess or
Ġd ial
c ons
Ġlawy er
our ney
Ġr ail
Ġread ers
re land
Ġs ad
Ġcont ains
Ġarg ue
ĠRe v
Ġtal ent
Ġf illed
ĠS um
Ġalleg ations
Ġactiv ists
ĠChrist mas
Ġd ynam
Ġ198 0
ĠMich igan
d ate
ĠB ack
ĠR on
l ong
Ġcr ack
Ġtrans form
T ube
ĠRe ad
Ġbuild ings
Ġwe ar
M any
ĠI ll
Ġterror ist
Ġs am
Ġt ree
Ġexerc ise
end a
Ġlab el
Ġeffect ively
O h
Ġpract ices
Ġsub sequ
al a
ĠJ ul
ĠS her
T S
ul s
Ġfl o
Ġf ish
ĠH y
ent ure
Ġsh op
Ġexam ples
ĠSe e
Ġpat ient
ĠG en
ĠSe attle
Ġobject s
Ġte ch
Ġsecret ary
as ure
Ġr ain
g ia
Ġmiss ed
Ġca uses
ill y
r um
Ġdeb ut
ĠR od
Ġess entially
6 6
Ġmor al
ord ers
am in
ad or
w ord
d ef
ac ter
ĠW ork
ar ters
ĠUkrain e
ĠSt an
Ġcent re
F ollow
ĠV ict
b ur
ĠI D
ic ing
Ġinj uries
ĠPh ot
Ġmot or
Ġi Phone
Ġart ist
Ġcl ient
Ġb ond
Ġth inks
i at
or se
ou ston
Ġp ure
Ġhe ll
Al though
ĠSaud i
Ġfact s
Ĥ ¬
Ġdes ire
ag ers
az a
Ġs ke
or ry
Ġlink ed
Ã Ń
Ġgovern or
ĠB at
Ġmaterial s
Ġperform ed
S pe
Ġfr anch
es ome
Ġsu c
Ġphilos oph
Ġinit ially
i est
ĠS ign
Ġnecess arily
ĠF er
Ġexp ansion
Ġschedul ed
ER S
Ġwar ned
Ġdi plom
Ġadv anced
Ġ ing
Ġexpl an
Ġvar i
Ġevery body
Ġj oint
Ġdec re
Ġres olution
Ġincre ases
en ger
Y es
Ġaccept ed
Ġinc or
Ġmy ster
Ġfac ed
Ġb are
ill ance
Ġannounce ment
Ġfollow s
g ent
ĠM ount
Ġn ations
Ġplay off
ĠL ife
Ġab andon
ĠSec ond
Ġrad ical
Ġath let
Ġne ither
Ġyes terday
Ġdat ab
Ġnear by
Ġdist ribution
ot ic
Ġappl ied
ir ty
Ġmag azine
M ost
ath an
r ich
Ġconsequ ences
Ġm ir
Ġdo ctor
Ġlist ed
ĠCol umb
Ġat mosp
Americ an
Ġsurpr ised
Ġfor t
Ġoff ense
u y
Q u
it ors
ĠC NN
ĠR E
Ġsp ons
Ġbeg ins
ĠWe ek
Ġthreat s
Ġa f
semb ly
Ġrep resents
ed y
ĠJew s
ĠG M
ĠA ff
Ġen h
Ġmov es
Ġrem ark
ĠT O
Ġp ra
Ġsong s
k ay
Ġbehav i
om in
Ġr ide
Ġadd s
C an
Ġwith d
Ã Ĥ
Ġimpro ved
ri p
Ġp hen
ĠBl ue
Ġb ot
Ġwar m
Ġal cohol
Ġout put
l aw
ĠA T
Ġfl ood
ĠDe velop
ĠH en
w hel
Ġsh ots
Ġf ill
ĠV ol
Ġst ood
Ġbr ings
Ġal t
Ġpus hed
Ġgu ilty
ĠRom ney
ĠK im
Ġsub scrib
8 5
Ġent ry
ocrat ic
ĠDe v
ĠB razil
Ġdem ocracy
Ġboy s
r ac
Ġ3 3
Ġro w
ĠSw ed
Ġconf ig
ĠN BA
Ġlaws uit
ĠI reland
Ġmanufact ure
Ġrece iving
Ġre in
ĠBar ack
The n
Ġt rib
Ġtot ally
ĠOn ly
Ġdiscuss ed
Ġrestaur ant
Ġs ought
Ġr ising
Ġent ered
ĠIS IS
ĠBo ard
Ġconsist ent
Ġhistor ical
t witter
Ġst orage
ide o
Ġcor respond
Ġplan e
Ġcomb ination
Ġin put
Ġsc ored
Ġ3 00
Ġsymb ol
Ġbr ight
Ġbut ton
ird s
Ġsuc ceed
st ood
Ġcreat ive
Ġinvest ors
Ġsqu are
Ġart icles
Ġ200 2
Ġis land
pt y
m es
Ġdeath s
Ġfun ctions
Ġnet works
Ġclass es
Ġunlike ly
al ty
Ġhead s
ic ian
Ġb oss
Ġn ative
ic ious
Ġl ie
Ġsa v
ĠL ib
Ġrough ly
Ġconsum er
ĠW he
ĠW alk
ĠP rem
f ortunately
ĠM s
Ġstr ing
ĠMay be
Ġheav ily
ĠAn other
Ġfair ly
Ġtemper ature
ard en
ic an
Ġk it
Ġexist ence
ĠIt s
ĠAs ia
Ġcont est
A dd
Ġpl ot
iss ions
d is
ĠC ub
Ġres ident
M an
us al
Ġtarg ets
ĠB ob
Ġres c
ĠKore an
du c
Ġl ock
Ġyoung er
ĠSt r
' ,
Ġcolle agues
P U
Ġl ibrary
Ã ¶
Ġr ally
Ġpar liament
Ġprot ests
Ġany where
ok ed
ĠS ports
ĠS ky
Ġb ike
z ona
Ġbre aking
i i
ac le
Ġgr ab
Ġstore s
Ġexpress ion
Ġsy m
Ġch ain
Ġbl ow
Ġwar ning
Ġimport ance
Ġdef ined
Ġch art
Ġbu ying
g reg
Ġman age
Ġpro hib
Ġclass ic
Ġc ere
Ġs now
Ġadult s
ĠE ach
Ġill ust
S ee
Ġmarket ing
O b
Ġl inks
Ã ³
iqu es
Ġsh if
b orn
and al
ĠCl ub
Ġto w
ĠH ist
Ġf raud
O C
p ret
Ġfac ility
olly wood
ch o
Ġhard ware
Ġsch ol
Ġalleged ly
Ġ3 7
Ġregul ations
Ġb on
Ġdo ctors
ĠColor ado
ag an
Ġcur rency
Ġhouse hold
Ġrepl aced
Ġess ential
E n
op y
on na
ĠR am
Ġsome what
ĠD iv
p ress
8 6
Ġn av
p ower
Ġfav our
Ġprom ise
ĠD C
ĠB oy
Ġl augh
P ol
ĠR ights
Ġhold s
Ġopp osite
ock et
en a
Ñ ģ
Ġmom ents
w est
Ġh at
ter ing
Ġopp onent
Ġbu g
ĠF ar
Ġcamp us
Ġact s
Ġr um
etro it
Ġvers ions
Ġmet al
Ġmot ion
Ġev olution
hip s
omet imes
Ġv ice
an ish
Ġse es
ĠIm age
Ġb ag
Ġrele vant
Ġindust rial
Ġz ero
Ġs ick
I R
om a
Ġclose ly
ĠAn n
het ic
Ġemot ional
c hen
g ame
I F
ĠY ear
ĠYou Tube
v a
Ġfew er
Ġdiv ision
ol ve
Ġad m
Ġd ownt
Ġhard er
Ġref ere
Ġcustom er
Ġhop ing
olog ist
Ġto m
ĠBro ok
Don ald
ĠVal ley
Ġh ur
ĠG ra
Ġmechan ism
it tle
p o
m l
ĠH ouston
ĠE lect
in em
Ġreturn s
N C
ate ll
Ġvol unte
Ġparticip ants
Ġext ent
Ġint ention
g as
al ian
p an
Ġexcell ent
ĠSov iet
Ġsy n
Ġacknow led
l lect
ul ous
ĠM ot
om ing
ĠG ames
Ġsqu ad
Ġcircumst ances
Ġf ashion
Ġis ol
Ã ¼
ot al
Ġimmedi ate
ĠE ric
Ġsuff ering
es c
ĠW atch
Ġl ies
Ġt iny
Ġauth ors
Ġbat t
Ġ3 8
Ġg rown
ĠG ar
ig er
Ġimm igrants
Ã ĥ
pr int
or a
Ġkind s
ut ch
Ġ4 9
ĠD ie
Ġche ap
Ġm ine
Ġdetail ed
ord an
ĠH el
n ame
Ġfeat ured
ĠW ik
ay ers
Ġme at
ĠE r
Ġun us
ĠA ut
Ġcompet itive
Ġdescrib e
Ġfor med
ĠH ome
ĠI P
n ic
cer tain
Ġcarry ing
Ġtourn ament
Ġter min
Ġtr ick
Ġrelationship s
f riend
Ġfundament al
ke l
Ġw ave
Ġcy cle
ob b
Ġc razy
Ġsign ing
ĠW ay
ĠC y
rom e
Ġgu ide
ef ully
Ġw ins
ĠCath olic
Ġear ned
0 8
Ġdec line
Ġreg ional
n am
ens us
st yle
Ġem br
Ġstr ange
ĠPalestin ian
ĠJes us
ĠL ong
Ġan cient
Ġfrequ ently
0 6
Ġact ing
ĠPut in
ĠS ar
Ġman ner
Ġeff icient
Ġpus hing
ĠC IA
Ġcomfort able
ĠC ard
Ġp ip
O RE
P er
Ġsh aring
Ġw ire
Ġsk ill
ĠE conom
oc key
c hers
Ġinst ru
Ġown ed
ĠE ll
b ar
Ġcommit ment
Ġalong side
ĠO F
u ated
ĠL ord
an es
0 9
ĠDav is
Ġc art
r ison
Ġcontrovers ial
Ġart ists
Ġrefer red
we ight
Ġe gg
Ġm outh
Ġrepeated ly
Ġ4 8
ĠT op
ï ¿
Ġ3 4
F P
aw a
Ġattempt ed
S e
Ġfem in
um ber
Ġupd ated
f oot
Ġc ert
v in
Ġpre gn
ĠO ld
u a
Ġsche dule
x y
ĠP S
am ily
ad el
Ġded icated
Ð ½
Ġpost s
ĠA L
Ġsent ence
Ġup coming
ĠD own
ĠN Y
Ġcol umn
ĠD i
h us
Ġdep th
Ġpl ed
Ġvirt ual
u able
Ġj ourney
Ġstru ck
Ñ Ģ
Ġdes k
Ġstud io
Ġreal ized
ĠE nergy
Des pite
% )
ce ived
ograph ic
D S
k o
u gh
Ġmed ic
Ġserv ing
iam i
Ġwalk ed
ri ve
iven ess
Ġk ing
Ġr ing
Ġrep ut
ph y
y ou
Ġur ban
0 7
ĠC le
ĠChar les
ĠW ild
Ġch annel
Ġtarget ed
g or
Ġass ets
lud ing
Ġins pired
Ġhot el
ĠAri zona
Ġnews let
L ike
T wo
ĠSu pp
Ġun iverse
Ġag enda
Ġca using
Ġwat ched
Ġsu icide
Ġt ort
Ġstre am
Ġover whel
ĠP y
Ġus ual
Ġsurve illance
ĠM en
Ġint ent
so le
Pe ople
Ġl iqu
Ġs ister
Ġopp onents
Ġchair man
Ġd u
ĠW ars
b el
ĠCru z
Ġmain stream
Ġlat ter
Ġh all
Ġsurround ing
Ġfol ks
Ġknow ing
Ġord ers
ĠIn f
Ġrem ote
Ġ7 5
Ġs and
Ġliter ally
ĠJ ava
Ġobserv ed
ĠAg ain
ĠR ight
Ġsubs id
ĠDef ense
Ġinf l
Ġappro val
ren ce
im ents
Ġbas ket
ĠV an
b urg
r ations
av or
Ġteac hers
az i
iz z
F r
az e
t a
Ġwin ter
ici ency
al le
Ġexc iting
ac c
i ro
ay lor
ĠT al
Ġform at
b oy
Ġcon gress
Ġprotect ed
at i
Ġnot iced
Ġsim pl
Ġdeal ing
ĠYou ng
ĠP an
ĠCh ild
Ġprec ise
6 7
x ual
Ġdeep ly
i pl
Ġcommunic ation
Ġg ang
Ġs ending
Ġfor th
ĠJ r
Ġf asc
Ġbat tery
Ġw al
m un
Ġsk y
Ġn arr
Ġfix ed
p ost
Ġas ide
ab is
Ġrequire ments
Ġproper ties
r ors
st r
Ġal ive
Ġnar row
Ġw ake
all as
Ġpass ion
ĠAr ch
onym ous
Ġe ating
ens ity
Ġmist ake
w art
w oman
Ġexpl ore
Ġcoff ee
Ġ197 0
Ġra pe
Ġvol ume
Ġprom ised
Ġd iet
ack ing
Ġris ks
Ġex hib
ĠPol it
Ġswe et
M ay
ĠEn ter
ĠW at
Ġne ut
Ġinvol ving
Ġw age
Ġse lection
ĠM ax
Ġtest ed
et her
Ġfl u
ult ure
Ġdefe at
Ġn orthern
Ġre ward
Ġwel come
Ġext ended
Ġput s
Ġterrit ory
Ġphen omen
Ġun employ
Ġrefuge es
Ġs ample
Ġhe ight
Ġapprox imately
ĠK evin
5 9
Ġbl ame
ĠBr ad
Ġany way
um s
ĠD etroit
Ġdestroy ed
ob ile
Ġimp ressive
ĠStep hen
as ks
Ġg od
Ġg ap
Ġpro of
Ġd ry
ï¿ ½
Ġcr ash
ing u
Ġun known
Ġloc ations
0 4
Ġselect ed
ap se
Ġw est
ang es
ger y
ĠF il
st one
Ġattack ed
ĠT it
l v
ĠM iller
Ġmax imum
ĠWil son
Ġprom ote
âĢĻ .
Ġshe l
Ġmere ly
Ġfranch ise
ar ry
Ġrequ ests
Ġsh o
Ġret ire
Ġsudden ly
as er
Ġslow ly
Ġprot esters
Ġdis ag
d ro
Ġteac her
Ġtyp ical
og an
ĠIn s
i xt
ĠW omen
Ġcon ver
l ist
Ġch ose
ĠC amer
ĠCl ass
ĠL u
Ġmat ches
Ġlic ense
Ġproper ly
Ġass ume
or ation
Ġdisc over
0 3
Ġw id
ĠP R
ĠM ic
R el
Ġwor ried
Ġmod er
O r
Ġab ortion
f ire
ow ered
Ġall ies
Ġob lig
Ġterror ism
0 2
Ġsupport s
a o
Ġ Î
uild ing
Ãĥ ÃĤ
ins on
ver ty
Ġarg uments
Ġthem e
Ġad apt
Ġconf ront
Ġfac ilities
Ġsust ain
ig g
g ender
Ġp al
Ġe ast
Ġrecogn ize
ig ure
Ġf uck
ÃĥÃĤ ÃĥÃĤ
l ies
Ġequ ival
Ġobtain ed
Ġpo verty
Ġr ub
ĠIt aly
m o
Ġnom ine
Ġde als
Ġfe es
it arian
os is
al o
ĠH ollywood
Ġunder stood
Ġcontro lled
V ER
ĠB est
ĠD am
Ġtop ic
Ġcrit ics
ĠSoc iety
ĠAg ency
ax y
ĠF ord
Ġso le
ĠJer sey
ar ity
Ġvill age
Ġdi agn
ĠAd minist
ra id
6 8
Ġlik es
ce ler
st ers
ĠF our
Ġev il
Ġpun ish
Ġd ress
c ript
Ġp ed
ĠGeor gia
ast s
Ġb unch
ĠComp any
Ġjournal ists
J ohn
Ġexp osed
Ġreg ions
red it
oc ation
Ġcommunic ations
Ġsche me
ll s
Ġtrans p
Ġst im
Ġlim its
Ġsome how
Ġstrong ly
Ġhon or
Ġdr ag
Ġresist ance
Ġch ampion
ĠL abor
Ġph ase
ĠNAS A
p ool
ĠCar l
Ġtr uck
Ġprof it
Ġconst ant
Ġcond em
Ġesc ape
Ġperson ally
ĠD un
rim ination
ĠN ight
ĠL and
au g
ĠF ort
Ġb id
ĠN HL
ĠSt and
Ġvac c
Ġdec k
C A
nes ota
if orm
Ġfall ing
ad s
GB T
ĠNet work
Ġsome where
c ers
Ġemploy ee
Ġhar ass
Ġbe ar
ĠC D
in er
Ġcompar ison
ort ed
ci ples
Ġpoll s
ow a
Ġin qu
ĠL ove
pect ed
Ġs outhern
or ic
Ġdec ent
c ow
ĠSp anish
Ġencour age
Ġem issions
Ġ3 9
ĠK n
ĠV iew
end ers
Ġem pty
ĠM iami
Ġh its
ost er
ĠC am
Ġdefin ition
5 7
Ġdirect ed
Ġp ic
ĠB ell
p es
Ġf lex
w an
z ens
ĠO k
Ġmeet ings
ĠE nd
Ð¾ Ð
Ġcomp rom
Ġwin ner
int end
ick en
Ġgot ten
ĠD aniel
ĠTur k
Ġelectric ity
Ġch osen
Ġoffic ially
Ġben ch
Ġstret ch
Ġdatab ase
ĠDes pite
Ġinte llect
Ġsp in
ig ation
Ġstrong er
C om
Ġde leg
Ġpurp oses
ĠD NA
te en
Ġcut ting
ĠT urn
Ġf old
a un
r ary
Ġext ensive
Ġamount s
Ġdes per
Ġan x
Ġtre es
Ġide al
ĠAs ian
Ġth read
Ġfif th
Ī Ĵ
ret t
C S
U R
Ġgood s
Ġcol on
Ġdevelop er
Ġclaim ing
un ning
An y
Ġre tain
Ġs oul
Ġcapt ured
ĠTh ough
Ġfind s
Ġdri ven
a ire
Ġpay ments
ĠJ ordan
r as
Ġt ies
Ġreason able
Ġdog s
â ĸ
Ġsome body
Ġend ing
ĠN ations
Ġcho ices
Ġb le
Ġse ats
ĠServ ices
as ters
ĠTh ank
Ġp od
Ġd rawn
Ġeng age
Ġs ight
C E
Ġpar am
Ġthreat ened
Ġrul ed
ĠD ar
ĠAtt orney
ĠIr ish
ep ing
ur a
ĠSe a
Ġtrad ing
ow ed
Ġprim arily
Ġaspect s
Ġf ighters
M L
Ġansw ers
Ġperfect ly
ir ms
ĠAc adem
Ġinc l
Ġr ival
Ġpark ing
Ġreject ed
ĠG all
ĠC at
Ġconst antly
ĠH un
Ġpay ment
f ast
Ġdist inct
Ġf lying
Ġr ig
ĠRe al
Ġtechn ologies
< /
Ġcomp onents
Pol ice
Ġad mit
ĠScot land
Ġelse where
ĠD ark
Ġconst it
Ġt ur
Ġany more
ld er
ĠC ast
Ġ icon
Ġfield s
Ġestim ates
E W
se a
Ġsol utions
Ġresult ing
7 8
ĠB ru
Ġaw esome
Ġprov ince
m od
Ġact or
Ġworld wide
Ġreg ularly
ĠMo ore
Ġcour ts
Ġnarr ative
O nce
Ġb oot
ĠU t
Ġenem ies
Ġmix ed
reg on
ĠO S
ĠDis ney
s m
ic er
Ġhous es
Ġno body
ĠS k
in ations
Ġcontrol s
ĠW ater
Ġlet ters
ag ram
ian a
im p
Ġ4 2
Ġm urd
Ġmay or
Ġout come
ĠM S
Ġcon tem
se ll
ĠT em
v y
S ec
s hip
ap es
ĠL ight
is an
on ic
Ġap artment
ĠB rian
ĠSte ven
Ġcoal ition
Ġcontribut ed
ĠB as
Ġt ank
Ġconclud ed
ĠAd am
Ġex ists
Ġfound er
ĠL ew
Ġatmosp here
Ġprof ile
Ġbre w
ĠI d
ĠT w
Ġsit uations
l s
ĠCh ampionship
Ġlo an
ĠA uthor
r ates
Ġincred ible
ĠConst itution
Ġsign al
ot es
ĠR og
Ġaccur ate
3 00
ĠVict or
ot ten
ĠW here
Ġun p
k er
ĠS outhern
." [
Ġemploy ment
ear ing
Ġcl ients
Ġkeep s
Ġinform ed
Ġcontin uing
in ity
Ġt aste
Ġbase ball
Ġgener ate
Ġtick et
Ġcon ven
Al so
ĠCon f
of t
Ġwe ird
l ock
Ġt ied
adel ph
Ġcateg ory
z y
il arly
ack ed
ĠOr gan
Ġang ry
Ġrout ine
ar on
Ġk il
Ġra ising
if er
Ġmach ines
Ġregist ered
Ġprov ed
the re
Ġdem ands
Ġg aming
ĠIt alian
Ġincred ibly
Ġcru cial
M P
Ġst uck
ĠC ivil
ĠD allas
Ġter rible
5 6
Ġfeed back
Ġu pper
Ġpl astic
Ġim per
Ġnew ly
ĠJose ph
Ġconsum ption
r age
Ġdo zen
Ġent hus
al i
Ġest ate
Ġinn oc
Ġman ip
Ġcons cious
Ġbill s
ĠC ross
ep t
ĠSp ain
ific ations
T oday
Ġwrit ers
Ġex cess
ind ing
Ġaggress ive
Ġrep orter
Ġcomp ens
Ġret urning
Ġst ead
Ġprogram ming
ĠTh anks
Ġrepresent ed
Ġconclus ion
9 8
Ġr us
ĠB owl
M S
ĠA R
Ġorig in
Ġassist ant
adelph ia
Ġro ster
ĠMin nesota
Ġorgan ized
ri a
Ġpen alty
l ers
Ġdrink ing
Ġpain t
Ġs atell
Ġg ro
ĠPro gram
Ġcapt ure
Ġcons pir
Ġinter pret
Ġexplan ation
isc al
n i
5 8
Ġcount y
isc ons
ess ed
im a
Ġ %
D r
m ont
ann y
gor ith
iscons in
Ġassist ance
Ġcompl aint
ĠRom an
st ar
Ġr u
Ġn ut
L A
Ġmag ic
Ġt all
ĠO per
Ġgr anted
E d
B ecause
ĠCont in
O ff
ĠPar liament
Ġcompl icated
em en
Ġch ances
Ġaud io
Ġext ract
ĠG i
Ġ199 9
ĠE duc
er a
Ġsh ares
Ġhe l
Ġsuccess fully
re te
es y
ĠW in
.... ....
ĠH ot
Ġpil ot
ĠI T
ĠE p
Ġmy th
Ġrec overy
ĠT est
Ġtechn iques
Ġ iron
ĠC are
ĠZ eal
ĠS C
Ġscen es
ĠF re
Ġveter an
Ġ( $
Ġdeg rees
act ions
k ed
the w
Ġsym pt
Ġlaw makers
Ġw estern
Ġoper ate
Ġad s
r ating
Ġha bit
re p
Ġaim ed
In st
anche ster
Ġph r
id ency
Ġeng aged
Ġpriv ile
Ġ5 5
==== ====
u an
Ġr ating
Ġteach ing
ĠO s
Ġacadem ic
! <|
it ar
Ġthe rap
Ġpass es
Ġdoll ar
Ġautom atically
he nt
ĠPac ific
Ġmon it
Ġbl ocks
ab ama
Ġatt ended
Ġperman ent
Ġsurv ive
Ġant icip
Ġen able
ĠL ook
Ġext rem
ĠFore ign
ch ain
Ġch at
Ġmark ed
it als
Ġh idden
Ġacc omp
Ġtit les
ĠSen ator
ĠN BC
c r
Ġt aught
a ed
ĠLin ux
Ġb om
Ġind ex
ever al
Ġel ite
ib ilities
Ġlawy ers
Ġdep ending
f rom
Ġval uable
Ġinst alled
Ġch ampionship
Ġro ot
Ġcomp re
m al
ĠB ull
Ġdownt own
Ġequival ent
Ġsol ve
r ific
Ġd uty
ĠSpe cial
ĠB usiness
Ġ6 4
Ġp ace
H S
Ġreput ation
Ġun certain
Ġph ones
Ġover se
u ine
b al
ĠT aylor
Ġperson nel
Ġp in
re ams
atur ally
Ġsuff icient
Ġvis ited
Ġwar ming
Ġprin ciples
Ġvulner able
Ġenjoy ed
Ġf ake
ĠN ick
Ġadv is
Ġnegoti ations
ind er
Ġgener ated
Ġexp osure
y e
M e
Ġrec ording
Ġcollect ed
Ġregard less
Ġd ict
% .
E A
Ġbit coin
Ġe lev
ã Ģ
act ive
ĠK elly
ĠAn th
Ġc up
Ġpattern s
Get ty
ĠT ake
) )
ĠA venue
ĠJ osh
b ro
Ġc able
Ġdis aster
Ġ6 5
Ġwork er
Ġmain ly
ll a
Ġrac ial
qu arters
ĠV iet
ĠCo ast
mon th
Ġp ounds
Ġ1 50
ĠC all
Ġport ion
ĠA h
Ġaf raid
Ġins pir
Ġb es
Ġdef ence
ĠE astern
ĠT ony
Ġtrack s
d a
Ġbus y
Ġsh it
Ġint ense
ĠL GBT
ĠSer ies
or ne
ĠSt ill
ath y
Ġfun ny
man n
Ġap olog
Ġsur gery
ĠMos cow
ĠC oll
Ġposs ession
Ġprom inent
ĠM ars
Ġcom ic
ĠG er
as hes
9 7
ul es
ĠR ay
Ġth in
Ġengine ering
Ġtrou b
ĠK urd
th is
Ġprocess es
ĠN ation
ĠK ent
ĠC ome
f all
Ġent it
Ġ âĢĻ
Ġunus ual
rap h
et ary
Ġdescrib es
C ol
w orld
9 6
Ġresult ed
Ġemer ged
Ġtax p
Ġg all
il er
Ġd im
Ġprop ag
ĠI owa
ĠO regon
Ġco ordin
Ġcor ruption
Ġst ations
ĠIn vest
Ġf ought
ĠA D
Ġbr ut
Ġext ension
pr ise
Ġbl ind
Ġadop ted
Ġcompet e
Ġrec ru
t es
Ġgr ant
ĠZeal and
Ġhad n
P r
Ġ4 00
Ġm ail
re f
Ġevery where
ĠB alt
ĠH om
b a
R ec
M ean
ic ate
Ġcry pt
he rent
Ġcontract s
ĠA li
Ġne uro
ĠI nt
f ront
ĠDe ad
ĠR ick
Ġfeel ings
Ġf irms
idel ines
âĢĻ ,
Ġminor ity
H A
c les
Ġadvert ising
Ġsp r
Ġrare ly
Ġdisc ipl
g un
m aking
ĠN orthern
Ġsan ctions
sc ape
ĠPhil adelphia
up id
Ġcamer as
l og
Ġexpl icit
Ġstr ict
v iously
Ġen orm
Ġfin ance
Ġc ited
if ies
ĠBe fore
Ġshort ly
ĠPol icy
U L
Ġexpect ations
Ġimplement ation
og en
Ġrec ip
cl ing
ĠGree k
ol t
Ġth ick
Ġthous and
ant ic
ĠM u
Ġl oud
ist ent
Ġaff ili
or ough
ur rent
ĠN avy
Ġin ev
c us
Ġphot ograph
Ġmed ium
az z
ĠW isconsin
Ġscen ario
ĠF ood
ĠL ive
Ġsu p
il ton
t est
Ġpl ug
Ġve get
C o
Ġh o
Ġvis ible
Ġlight s
L C
Ġcreat es
Ġprior ity
Ġv en
Ġbr idge
ink ing
Ġob st
Ġag ric
AT E
Ġper mission
M ar
ĠF oot
Ġal gorith
iz on
Ġparticip ate
ask a
Ġw ing
wh o
as ion
Ġt or
ĠPro te
Ġbrow ser
ĠGl obal
Ġt ag
c ar
ĠH as
Ġm el
ĠAs h
Ġac celer
e lect
Ġdo zens
ĠKing dom
e z
Ġcomput ers
Ġhistor ic
Ġla id
Ġbasket ball
Ġloss es
ĠS af
7 6
Ġun w
og ether
: :
ĠAm endment
Ġstrik es
Ġprinc iple
ĠDevelop ment
Ġform al
E P
5 4
Ġsc oring
l an
at hered
ob s
Ġ4 4
Ġcoun sel
+ +
Ġsh ock
Ġwonder ful
ĠS P
Ġbeh alf
ab s
Ġun com
prof it
ig en
5 2
ent h
em s
Ġinter face
Ġestablish ment
Ġto ler
ĠHen ry
le te
b ell
ĠG reg
am ber
ĠM ajor
ĠTh us
U s
Ġg ained
Ġfe e
j o
Ġfound ed
Ġfound ation
et ime
5 1
ĠE SP
ili pp
Ġclub s
Ġcann abis
Ġj u
Ġair port
y stem
ĠKe y
Ġb orrow
ol is
i el
we et
B O
Ġmanufact uring
Ġre ly
ĠH it
ĠP ay
ĠAl abama
ĠR oyal
Ġgen uine
rat ors
Be fore
Ġcomp onent
Ġrid ic
ose xual
Ġwhe el
r ative
ĠO ak
Ġjournal ist
Ġrel ief
ĠS n
Ġsa ved
Ġh ole
Ġy ield
Ġhead ed
Ġcy ber
s he
ĠM oh
u er
epend ent
ĠO l
Ġg ift
a us
Ġwithd raw
Ġf ault
Ġindic ate
Ġdraw ing
Ġun iform
um er
ĠR and
ar lier
ĠV is
Ġst able
Ġsh ips
Ġ- >
Ġban ned
Ġmag n
ĠM id
Ġfoot age
Mean while
rou s
Ġdo ors
Ġrecogn ized
Ġ19 60
Ġcont aining
p read
ĠF C
Ġr iver
Ġstrugg ling
S ub
Ġsp ark
ĠAcadem y
Ġwall s
Ġachie ved
op her
oun ced
Ġneigh b
an ing
Ġpl ate
Ġed ition
ĠH T
port ion
m ate
Ġmove ments
Ġdeli ber
u ce
P ost
Ġsh arp
ĠA S
ĠS now
ul ating
ĠTh ree
Ġepis odes
Ġneut ral
ĠPrem ier
ĠR et
ĠF und
Ġexcept ion
et ts
Ġprodu cer
________ ________
ĠF red
Ġdest ruction
Ġ199 8
am i
ou red
os a
: <|
Ġbelief s
Ġ4 7
ĠRe view
Ġp ump
Ġleg end
ĠMc G
Ġback ed
um in
Ġh ired
Ġlik ed
ides pread
c ription
c a
Ġro les
Ġlangu ages
Ġprofess ion
Ġent ering
ĠV R
o en
Ġinterview s
Ġh ang
is p
ĠK ir
Ġto x
Ġphilosoph y
ĠAdminist ration
Ġar range
inte rest
Ġfl aw
ĠN ob
Th ose
sy lv
im ore
Ġst adium
ĠAtlant a
ĠJ ac
Ġredu ction
Ġdin ner
Ġb ath
j a
u per
ĠTurk ish
em an
ĠRep ort
4 00
Ġa ver
Ġf inger
ĠN ote
ĠCon ference
Ġtack le
bur gh
Ġch a
Ġg onna
ĠDie go
ĠCent re
Ġc rop
Ġfarm ers
ĠM anchester
Ġnomine e
Ġ4 1
5 3
ach ing
ĠJ ason
Ġbare ly
AT O
Ġstruct ures
Ġcont ained
Ġsy nt
Ġdeli very
Ġconv in
ĠO tt
% ,
Ġprocess ing
Ġdisc rimination
Ġinc ent
ri ers
ĠF air
erv ed
R S
ĠD ata
ĠL o
t hen
ĠAr m
abin et
Ġintellect ual
ams ung
Ġ4 6
ĠRad io
ĠB ry
ĠF ield
ĠO K
ĠD id
Ġup set
ĠPer haps
ĠM ir
ĠEduc ation
sylv ania
aw ay
P resident
Ġchalleng ing
Ġpro ven
Ġrestrict ions
ri k
g ener
Ġfore ver
h ttps
ol en
Ġelect ronic
Ġhit ting
ĠH ay
Ġe uro
Ġun ex
h o
Ġreview s
ĠF ed
ĠChrist ians
Ġ4 3
ĠH or
St ar
Ġconv icted
Ġill ness
Ġsm ooth
D av
p age
Ġret ired
Ġindic ated
us ive
Ġprodu cing
ĠHar ry
ĠAb out
Ġrapid ly
Ġro se
Ġh ide
Ġcorpor ations
Ġo cean
ĠN C
ĠR us
ĠP oint
ay ing
ow ing
ĠS at
Ġlist ening
ĠRe uters
ĠU FC
Ġtechn ique
Ġm o
y ard
sel s
Ġl oyal
ĠN ic
less ly
i y
Ġrob ot
Ġcl imb
Ġnot ion
Ġbeg un
8 7
Ġre n
Ġut il
Ġrecogn ition
ou ver
eng ers
in f
Ġper pet
Ġassoci ation
Ġmil k
Ġas ks
Ġwebs ites
Ġdesc ription
ĠP ack
Ġtick ets
ĠP en
ach us
Ġfl ash
Ġb ra
Ġsuggest ing
enn y
ĠJud ge
Ġexclus ive
Ġreach ing
Ġprep are
it i
ĠK ansas
f ound
ion e
Wh o
Ġb ail
Ġfr ag
Ġprogress ive
Ġb urd
Ġex ceed
Ġequ ally
ĠH ard
Ġhard ly
Ġw idespread
ĠA BC
Ġcampaign s
ĠMay or
Ġcont ribute
ud es
el f
olog ists
Ġbr anch
L ook
ĠR ose
Ġgr ass
Ġiniti ative
ĠMark et
Ġeth nic
Ġex ternal
ik es
ĠC irc
um a
ri ent
Ġsens itive
Ġpract ical
ust ed
Ġunc lear
Ġnorm ally
R ef
Ġrepresent ative
p at
8 9
Ġwe lf
ĠF ull
th on
Ġredu cing
app y
Ġfriend ly
b ec
Ġcare fully
ĠArab ia
ĠR ef
l ad
ĠL y
P M
ĠL uc
Ġrac ist
Ġinv ent
r ical
P G
ou ch
ĠC O
Ġrespect ively
sen al
Ġex em
rat or
Ġt ail
im m
ĠMcC ain
ĠBern ie
anc ouver
Ġoverwhel ming
Ġview ers
ĠBe ach
Ġwelf are
arr ass
st ract
ĠF urther
Ġconvin ced
U N
Ġsm oke
um es
Ġcoll apse
Ġinvolve ment
ĠL ind
es ter
Ġth rown
pl oad
Ġconnect ions
he ast
Ġterror ists
ĠB attle
Ġstrateg ic
Ġh ook
Ġ 00
ĠLat in
Ġrec over
omet hing
ĠO nt
Ġw ine
ĠNe xt
M c
ino is
ĠMus ic
ro lled
Ġmind s
igr ant
Ġv ital
Ġsettle ment
Ġstat istics
Ġl ists
Ġv ary
ĠS ir
Ġfeat uring
ĠESP N
ec ut
ĠD ig
achus etts
Ġbehavi our
Ġindepend ence
w orth
Ġfant asy
Ġdev ast
ned y
c ore
ut ies
Ġinv ited
Ġcompl aints
Ġjo ining
d em
Ġscore s
Ġf iscal
Ġdeep er
ab il
ĠPenn sylvania
if est
Ġst eal
Ġan ger
Ġdep uty
Ġel ig
Ġw ars
ĠSqu are
ĠT enn
Ġinvestig ate
ĠT own
Ġsu gar
Ġconst itutional
ĠP it
ĠII I
Ġschol ars
Ġany body
Ġi OS
Ġsubject s
ĠA ND
Ġar ray
Ġal ien
F A
ĠG ov
Ġl obby
Ġowners hip
Ġframe work
ĠU lt
Ġunemploy ment
ĠDiv ision
Ġtrans gender
b n
Ġimprove ments
ĠS S
Ġmen u
Ġpe ak
B ack
Ġsc reens
ih ad
Ġin ject
Ġl uck
ivers ary
Ġdef ine
Ġt asks
ĠX box
Ġdem ocratic
Ġsc andal
ick ing
Ġj ury
ĠAnt on
C he
ĠMin istry
ĠK at
Ġc os
Ġcompre hens
os it
ĠE s
un ior
Ġrem em
Ġdisc overy
Ġreg ister
Ġcas ual
Ġcitiz en
R I
Ġf ab
U nder
Ġroad s
Ġdisag ree
Ġfail ing
ĠN ever
ĠL ittle
ĠJ ay
Ġdynam ic
Ġserv es
ĠCamer on
ĠBro ther
ĠM ah
Ġtest im
Ġg athered
ĠIn formation
ĠSt one
S m
ast y
Ġs oph
od ing
Ġimplement ed
Ġcontrovers y
Ġcollect ive
Ġtr ained
ann a
ĠN SA
Ġneigh bour
Ġfear s
Ġguaran te
level and
Ġsam ples
Ġf iction
Ġpro sec
Ġest imate
ĠCommun ity
6 9
ĠI ce
ĠMed ical
ag g
ĠSep t
Ġ199 7
ĠPh ilipp
Ġrefer ring
Ġt ip
Ġcap tain
W ill
Ġ199 6
Ġsp aces
c ific
ĠWalk er
Ġvers us
Ġleg s
ĠSant a
Ġtem porary
Ġno ise
Ġs in
ĠH D
P C
Ġincor por
Ġt one
el and
ac on
Ġover t
Ġvisit ors
Ġre ven
Ġcivil ians
Ġw ages
Ġhyp ot
Ġrem arks
Ġaware ness
ĠO N
ĠSpr ing
Ġrecomm ended
Ġst upid
ĠAll en
Ġhead ing
Ġhand ful
Ġreg ulation
ick et
ĠA ction
ĠC ore
Ġplatform s
Ġacc us
ĠAnth ony
Ġaff airs
Ġtouch down
Ġr ural
Ġattack ing
Ġext end
Ġult imate
Ġatt ached
ĠVe gas
Ġdiscuss ions
Ġhor se
m ad
ĠB rew
Ġrep rodu
Ġattempt ing
Ġgen etic
Ġexpand ed
ph ones
ĠMat thew
Ġr aces
inc luding
ĠQue en
ir y
Ġr aw
Ġign ore
ĠColumb ia
s erv
ĠP ent
ĠGuard ian
h our
ĠC ook
ition ally
Ġg ear
Ġi P
Ġsympt oms
ĠPat rick
Ġsuff er
Ġsett ings
ĠM ake
âĢĶâĢĶ âĢĶâĢĶ
all ing
Ġsal ary
h an
c ase
Ġlic ens
Ġro of
m ary
G O
Ġtweet ed
ang el
' .
Ġpublic ation
Ġbr ill
Ġfact ory
Ġsuspect ed
Ġpurch ased
Ġinter vention
are t
Ġeas tern
Ġhol iday
ty pe
20 14
Ġprom pt
es h
Ġthe at
Ab out
Ġdis pl
Ġrank ed
ĠB udd
Ġne ck
ĠAust in
ĠConserv ative
ĠM useum
ĠR oy
" )
Ġc ro
Ġenorm ous
S en
## ##
intend o
Ġc ogn
Ġlog ic
ult ural
ict ions
ĠAP I
Ġimprove ment
Ġview ed
Ġing red
Ġentertain ment
A ss
Ġlegit imate
ĠProf essor
omm od
Ġpres um
ĠAl bert
ĠMass achusetts
ĠB all
Ġ201 9
Ġw ww
New s
Ġact ors
Ġsubstant ial
Ġhuman ity
Ġinvol ves
Ġres ource
ar ms
Ġbrother s
Ġliqu id
Ġr ational
Ġseem ingly
Ġs orry
Ġlay er
Ġlo ans
Ġro ok
Ġinvestig ating
Ġabs ence
Ġprov iders
Ġtom orrow
Ġb ureau
Ġfall en
re c
Ġground s
Ġco aches
Ġst ake
Ġres ign
Ġout s
Ġadvoc ates
Ġâ Ĥ¬
R C
Ġinvestig ators
Ġconspir acy
Ġdram atic
Ġmedic ine
W here
Ġf ulf
Ġmon itor
ĠCh air
re pre
ES T
Ġch apter
ĠSe ason
Ġc oc
ov al
Ġover s
G E
l ah
ple te
. -
Ġactiv ist
p ed
Ġbo at
ĠChe ck
ak a
ĠCont rol
Ġj ur
Ġsusp ended
Ġp apers
Sc ript
ĠGree ce
Ġopin ions
ĠS uch
ĠR oss
Ġmiss ile
ĠGold en
Ġcele b
ĠRev olution
20 16
Ġstay ed
Ġco vers
ĠHe ad
Ġd iversity
iver pool
oty pe
Ġb ars
Ġg am
R uss
re ts
Ġj e
x it
Ġemb arrass
Ġoffic es
ĠA cc
our se
ĠP ot
cl aim
P art
h ot
ĠIran ian
am med
Ġdis rupt
co ver
ĠW W
Ġpre ced
m at
Ġpo ly
Ġfore st
we red
Ġcare ful
ĠA p
repre ne
v ard
Ġam id
ĠHist ory
7 9
ĠH o
ĠH ospital
ist ing
ĠA le
Ġaut hent
qu est
ĠIll inois
ĠC BS
ĠS ony
u ction
Ġh am
ge on
Rel ated
d it
7 2
7 4
r ine
Ġtransport ation
ĠV ancouver
ĠG aza
Ġhand ed
Ġprot ocol
Ġconsist ently
Ġmount ain
Ġ5 2
Ġread s
ĠSt at
Ġpre f
Ġclot hes
Ġatt itude
i ability
ect ion
ĠP o
ĠSh are
ĠKen nedy
Ġp orn
Ġprinc ip
ĠF reedom
b i
Ġdep ends
Ġmin ing
Ġpet ition
Ġnot ing
Ġcon ce
d es
Ġcol ors
Ġlow est
ĠAnd erson
Ġwar rant
Ġaddress ed
ĠT ri
ĠF amily
un es
Ġent r
ĠR a
pt ions
x x
ĠSt adium
Ġthrow ing
Ġvirt ually
Ġf ruit
! )
Ġst one
Ġf oss
ĠMe an
Ġguaran tee
Ġrefere nd
B oth
Ġspeak s
ĠBalt imore
in ch
? ?
Ġste el
Ġcl osing
Ġread er
F F
d ri
Ġbu ff
Ġperson ality
ĠC re
Ġappreci ate
Ġsur f
ĠIraq i
pt on
ĠEn vironment
Ġn erv
ien ces
m aker
ke ep
Ġk m
Ġhand ling
Ġprof its
Ġg rav
ord on
l ow
Ġmar ks
Ġtri es
ĠBro ad
ĠE xt
Ġcontribut ions
ĠEng ine
rop ri
z ed
Ġspirit ual
Ġconvers ations
ĠT ro
Ġfant astic
Ġl ands
Ġcon sole
il a
Ġhor ror
pp ers
" .[
ic ity
Ġg ains
H er
Ġcover ing
Ġte a
iv als
ĠHar ris
Ġast ron
Ġh int
av al
Ġshould er
sc ale
Ġw rest
Ġgu est
ĠB ad
Ġacc ommod
ut ed
u its
Ġdep ression
Ġ _
ĠC A
ĠLew is
Ġl ucky
ĠB ang
Ġencour aged
fl ix
am ac
Ġjud ges
Ġinc idents
ĠC leveland
Ġd rew
Ġsubsequ ent
ir a
Ġsp oken
ĠR en
ĠHow ard
Ġbro wn
Ġb acter
P lease
ix ed
ann els
Ġr anks
Ġr het
ĠGet ty
Ġphot ograp
Ġinfl ation
Ġin ner
ĠInte lligence
ed ing
it ting
ĠB a
Ġm aps
ab eth
ĠPat ri
port ed
ij ing
pl ate
Ġdiv ided
Ġ199 5
ĠN ATO
**** ****
Ġpar alle
Ġdr ama
ĠMex ican
Ġdist ributed
Ġg al
Ġinnov ation
Ġsw ing
Ġc ust
un icip
ĠUn fortunately
Ġprem ium
Ġper mit
Ġvot er
Ġre vel
ĠK ong
Ġtre m
Ġd ance
Ġcl im
pl ed
ĠL as
Ġeff iciency
ĠInd eed
Ġprom ises
N ote
ĠC H
ĠWh ich
Ġball ot
Ġ5 1
Ġtemper atures
ĠS amsung
Ġport ray
Ġspokes person
Ġl ocked
Ġl ying
Ġimpro ving
Ġth rew
Ġj oy
Ġd ump
Ġmus ical
P P
Ġmist akes
d ated
Ġsh out
con f
Ġhom eless
Ġreplace ment
er ies
ĠSt art
Ġcom edy
Ġche cks
ĠM oon
ĠWith out
Ġinstru ment
oun ce
ĠCon nect
Ġacknowled ged
Ġbar rel
Ġrespons es
Ġprotect ing
back s
ĠD et
Â Ĵ
Ġsil ver
Ġcop ies
he im
Ġl es
ĠA C
Ġd ad
Ġbreak s
ĠPl us
ĠB uff
K e
Ġcommon ly
Ġle ts
Ġleg acy
it age
Ġprote in
Ġmat hem
Ġjo ke
amac are
er ted
h op
Ġpass engers
20 15
Ġy ellow
ĠMar vel
Ġn aturally
Y our
ĠS cient
Ġnom ination
S ource
Ġmeas ured
ap ing
od ed
al ia
ĠU se
Ġabandon ed
Ġm ad
ĠPr ince
Ġstud ied
8 00
ĠFoot ball
Ar t
hel sea
ast ed
Ġd iverse
Ġr om
arg o
Ġacqu ired
ĠL yn
iet ies
C ons
ĠM arsh
Ġso il
Ġdemonst rated
Ġre ar
Ġfund ed
Ġhead quarters
hes is
est y
Ġst olen
y o
Ġsc an
y er
Ġcount s
Ġt ape
Ġpartners hip
Ġmid field
ĠN OT
Ġ( âĢľ
Ġupgr ade
ĠC ost
ĠAtlant ic
Ġm arch
Ġord inary
ĠA ud
ĠN ev
aw are
Ġliter ature
Ġpl ain
Ġst ages
ĠâĢ ¢
Ġass ert
Ġ199 4
h igh
ĠA I
Ġhelp ful
Ġarri ve
Ġex it
Ġsc ope
Ġfall s
6 3
d og
Ġign ored
B M
Ġtw enty
et ers
ĠM aster
Ġcl ock
Ġcom pe
in ction
Ġvir us
ĠT rib
Ġreferend um
Ġin equ
Ġun ions
ĠDo es
ass ador
Ġconserv atives
ĠG un
Ġr if
Ġgr id
Ġsy mp
Ġf estival
Ġf ro
Ġsho pping
Ġwat ers
ĠP op
Ġcap abilities
ĠB ron
Ġa x
lah oma
ĠH ind
Ġus age
i ate
z ing
ĠEm pire
aed a
ĠAb b
ing ton
ĠIndian a
ile y
Ġtrans actions
Ġhop ed
er g
Ġdist ract
Ġgu itar
V E
ĠE ag
ct ic
Ġst y
Ġr amp
Ġassess ment
Ġunivers ities
ĠD ave
Ġm oon
orm al
Ġmonit oring
ack et
br idge
Ġrepresent ing
F acebook
ĠDe ath
Ġrat io
en cing
6 2
ugh t
ĠPro v
ĠA st
or ge
j i
Ġconvention al
com es
US T
ĠS et
Ġtr ave
Ġtrack ing
d oor
nt il
p ie
ĠS ometimes
6 1
on ly
sh ire
Ġh ung
ĠS us
Ġrel iable
Ġt ie
Ġpropos als
Ġske pt
Ġrepl ied
u h
ĠR os
Ġcritic ized
Ġappear ances
r imin
ecut ive
Ġrac ism
Ġins isted
or gan
Ġ20 20
Ġintrodu ction
Ġappoint ed
d ney
ĠB ureau
ol ph
ag ic
ĠP ass
c ut
ĠL ine
Ġbeaut y
Ġconc rete
Ġrece iver
f und
Ġsupp lies
Ġperform ing
m ade
Ġb ub
Ġex ch
r ite
ĠH a
ĠHe ll
Ġvis iting
ĠTechn ology
ĠDen ver
oc ument
E E
the less
om es
ĠC apt
R L
Ġlet ting
AN D
Ġdef icit
Ġclass ified
ĠGal axy
Ġre nder
H T
Ġabs or
ĠOr ig
Ġsw im
Ġaccompl ish
Ġaut o
Ġprogram me
Ġpres idency
c rib
Ġblock ed
ĠSwed en
ĠJ am
Ġe c
arch y
Ġd ust
ĠUt ah
Ġdro ve
Ġland scape
Ġcan ce
ĠPort land
pl us
Ġdismiss ed
ĠL A
Ġhy per
Ġab road
Ġbon us
ĠT our
Ġsequ ence
Ġpredict ed
Ġsen ator
Â °
el a
ĠA ge
Ġwar n
Ġdom ain
ĠC ode
ĠB on
Ġm useum
ĠAssoci ated
Ġpers ons
N S
Ġd ub
ag a
Ġrequest ed
Ġtrig ger
ĠOnt ario
ian o
ĠCor por
Ġh ockey
Ġart ific
Ġd ates
Ġtestim ony
Ġcent ers
Ð »
Ġrock et
ir ts
Ġv es
Ġtrans it
Ġcongress ional
Ġentit led
ult ane
ac co
Ġspokes woman
ĠFr ont
ĠN intendo
ĠAlex ander
Ġresc ue
ĠCo oper
m ony
Ġass ign
Ġequ ality
Ġp atch
Ġur ged
af e
Ġb read
ĠOlymp ic
Ġdocument ary
Ġveter ans
Ġcl ar
f ol
9 3
k ing
ĠâĢ Ŀ
Ġrec all
Ġpop ulations
9 4
a is
Ġbreat h
ĠL ow
St ill
9 2
ound ing
room s
A re
Ġwhen ever
Ġviol ation
Ġtact ics
Ġw ider
7 1
Ġtarget ing
Y et
th rough
Ġpurs ue
" >
Ġs alt
Ġf iring
iz abeth
d on
ĠM ill
C omp
Ġac id
h ar
Ġm ole
in ating
Ġrestaur ants
Ġcomp are
7 3
f are
or ous
Ġw edd
enn is
ect ive
Ġemploy ed
ĠRober ts
Ġcont rad
ĠB ible
Ġpolit ically
Ġphr ase
Ġsatell ite
ĠC ro
Ġsurv ival
Ġretire ment
Ġbank ing
ĠF orm
is ons
ĠG irl
Ġbrill iant
Ġch annels
Ġser vers
ĠBe ijing
Ġsoc cer
tr ans
ĠM ach
the y
Ġintrodu ce
ĠJust in
at ar
Ġexper iments
a ver
ene z
Ġprison ers
ra pped
Ġc ig
ĠW H
j ud
Ġf ighter
6 00
Ġscient ist
O K
ĠY OU
usal em
ĠL ist
Ġsub mit
Ġappro ached
ĠA ward
Ġmonth ly
ĠL iverpool
re ll
Ġdesign s
Ġrepresent atives
Ġc ul
Ġtit led
ord inary
Ġqu ote
Ġpopular ity
ol ves
Ġab ilities
oen ix
ĠP D
Ġmembers hip
Ġinvestig ations
Ġfocus ing
p a
m ans
Ġb ab
Ġh osp
ĠBr idge
Th ough
ĠMary land
ĠAd v
Ġsa ving
Ġr ush
ĠGovern or
Ġm it
Ġsh adow
b ow
ou ri
ĠH ur
ĠB ase
Ġobject ive
ber ry
ĠT ed
Ġenc ry
er ts
eder ation
Ġpre par
Ġt ips
ĠW as
Ġpip eline
Dav id
Ġchild hood
ik a
Ġrat ings
Ġth orough
Ġent reprene
ĠK ar
ent er
ĠV ill
te l
ĠD utch
w as
bre ak
em ed
Ġact ively
ĠHar vard
ĠS om
Ġp ig
Ġdemand ing
Ġlo ose
ĠB ra
Ġunex pected
C O
Ġsm oking
Ġsm ell
Ġden y
Ġunivers al
Ġfore cast
Ġarg ues
Ġphenomen on
Ġoverse as
m ers
old s
Ġsett led
w alk
ĠBe ck
Ġgener ations
Ġch icken
Ġweek ly
Ġprep aring
Ġ9 5
Ġsmart phone
Ġprodu cers
Ġbut t
ĠP A
Ġlegisl ative
ĠC ry
Ġanx iety
ĠH ave
Ġdist urb
Ġinnoc ent
ĠC lick
min ute
Ġmort g
Ġcelebr ate
D em
ik i
Ġprov ision
ĠD O
Ġke ys
ĠU r
d ed
Ġsh ame
Ġarg uing
ĠDes ign
he ld
Ġquestion ed
Ġfor cing
ĠC ow
ĠH op
ag h
omp son
â Ķ
Ġbroad er
Ġencoun ter
Ġfl ags
S L
Ġf ool
Ġm ac
Ġ5 3
Ġdead ly
Ġf ur
8 4
Ġre verse
Ġwe igh
ĠEd ward
ĠAm ong
Ġt ens
Ġ ~
Ġm os
Ġwealth y
ĠOb amacare
Ġun pre
Ġmaintain ed
Ġsure ly
Ġsh ield
ĠPro p
ocol ate
ore t
Ġsecond ary
is a
av ed
S im
Ġsav ings
ir lf
Ġst ability
Ġcivil ian
Ġt ab
Ä ĥ
ĠCar ter
Ġreve als
m ind
Ġmin i
el son
Ġal arm
Ġann iversary
Ġs orts
ĠA k
vern ment
E l
Ġton ight
Ġrele ases
is k
ĠH on
Ġroom s
irlf riend
ĠG ulf
Ġout rage
Ġprosecut ors
ĠLe ft
o is
e le
Ġdis order
in als
Ġex ha
or ious
Ġsh r
Ġrel ax
Ġwind ows
Ġthreat ening
Ġdifferent ly
Ġharass ment
Ġqu oted
Ġhealth care
Ġsub mitted
Ġar bit
Ġl unch
st ep
it ter
ĠR un
Ġreform s
Ġtort ure
re ction
Ġf ate
Ġst ored
Ġo kay
ĠBel g
Ġpropag anda
Ġsp ots
Ġinstruct ions
ĠViet nam
Ġse vent
Ġround s
Ġodd s
Ġ199 2
Ġa er
ht ml
ten ance
a a
Ġer rors
ĠOk lahoma
Ġhy dro
ic ism
G A
Ġde lic
ail ed
ĠLiber al
Ġsil ence
ĠGra ham
act s
ĠWar ren
Ġgrad uate
ĠS ab
Ġcirc le
Ġafford able
se ct
ĠBl oom
o z
Ġcooper ation
Ġp icks
Ġse ar
it ary
ĠSar ah
ĠF all
ors hip
ĠEx pl
Ġstrik ing
Ġp uzz
v an
Ġpers u
Ġstre aming
Ġcomprehens ive
Ġimportant ly
Ġc ow
Ġposs ess
W atch
Ġf ing
Ġexec ution
ĠRub y
l ined
row s
Ġint im
Ġstrugg led
ĠP erson
ĠSil ver
Ġass ass
ĠLe ader
ut en
ah u
Ġg ent
T y
ĠPr ice
Re uters
ish op
Ġdes erve
ĠJer usalem
Ġland ing
Ġcal m
Ġal ter
Ġh al
Ġcere mony
Ġassum ed
Ġdemonst rate
Ġdifficult y
f r
8 3
Ġag es
Ġpr on
Ġd ying
Ġdist ingu
as ury
et he
Ġste pped
Ġb orders
ast ing
Ġche st
ĠW olf
ĠL t
Ġadv enture
Ġpoint ing
Ġw aves
ov a
ĠDe b
Ġkil omet
es see
ier ce
ĠNet flix
ater n
Ġaut onom
Ġprecise ly
Ġarchitect ure
Ġgreat ly
b ury
Ġprom ising
Ġcons ent
e als
Ġconsider ation
Ġdri ves
Ġdial ogue
ĠM ain
Ġtrem end
ĠT en
ĠB ud
Ġnewslet ter
Ġrook ie
as ant
Ġaward ed
ĠMean while
a fter
Ġrepe at
ĠSt ory
Ġcont ribution
ĠTe le
Ġb urning
part y
Ġsim ultane
ĠScott ish
ĠV ice
ak h
Ġdon ations
ĠInd ust
Ġinter f
it ol
ĠMag ic
Ġvo ices
Ġanaly st
ĠBru ce
ĠTe ch
cept ions
Ġg if
Ġfrequ ency
ĠComm on
Ġproced ure
Ġwant ing
ĠP res
Ġexecut ives
Ġplayoff s
o ice
Ġstay ing
le e
ap olis
Ġb irds
Ġbi as
ie v
V D
ĠH ong
ĠA z
iz er
Ġinc hes
Ġtr illion
om y
hold ers
Ġhighlight s
Ġsem i
Ġremark able
Ġwhere as
E X
rib utes
ĠPalestin ians
Ġkn ee
op en
Ġan s
ĠJon athan
ra ig
scrib e
Ġimpl ications
Ġform ation
Ġsuper ior
Ġstrateg ies
it ual
ĠBer lin
ĠL ink
d iv
ĠSy dney
st al
ĠM ORE
ĠAr k
Ġcateg ories
Ġf et
Ġfollow ers
Ġcre am
St ory
F O
port ation
Ġcontact ed
M s
Ġjud gment
ann on
y es
Ġsm ile
Ġinf o
Ġemer ging
ig ious
r if
j s
ond er
om ed
b ered
v ision
ĠE ff
vertise ments
iff s
Ġaccess ible
h att
Ġcr imin
T P
Ġass igned
Ġphys ically
Ġ5 4
Ġgu idelines
Ġdefe ated
Ġw ounded
Ġst em
Ġtri als
Ġman aging
Ġspe ll
Ġmin istry
Ġgr ade
Ġco inc
Ġr iding
Ġcent uries
Ġindic ates
Ch rist
c est
ĠAff airs
Ġop ens
ak i
Ġph arm
- >
Ġmeaning ful
Ġt iss
ĠMr s
Ġe ase
ch ild
Ġmarg in
ĠSt ore
Ġclot hing
ĠS ix
Ġâ ĪĴ
ĠT es
ĠCap ital
Ġparticip ation
ced ented
M us
Ġre vers
ar ia
I nt
Ġpo ison
ĠBre xit
Ġ1 20
ĠY emen
Ġl apt
Ġcompet ing
Ġmem ories
ĠC S
Ġthe ories
Ġrec ipe
Ġg ross
a uthor
um ble
h ard
9 1
Ġpass age
s l
Ġag ed
ĠC redit
Ġb in
Ġdr one
Ġbl ank
Ġdisp ute
Ġdam aged
Ġ199 3
ĠHam ilton
b ase
Ġhost ed
Ġsubst ance
T ER
Go ogle
ĠC helsea
Ġpromot ing
Ġfac ilit
Ġopen ly
ĠInst agram
ĠL am
Ġ19 50
ĠV ik
V iew
ĠChild ren
ĠCr ime
Ġclin ical
O ut
Ġn ic
e ven
ere my
ĠH old
b its
ere nt
Ġinvest ments
Ġcons ensus
ĠF al
ig ate
ĠLe on
s es
Ġeduc ational
con st
Ġdis h
it o
Ġman ifest
Ġcust ody
8 2
we ek
Ġelig ible
ĠHaw ai
Ġleg ally
Ġend orse
Ġmiss ions
Ġg ate
Ġmem o
er ia
ĠG T
Ġt ables
ĠP ict
Ġn in
Ġstud ying
H z
ad i
Ġchar ity
ar ation
Ġaddress es
Ġ ?
Ġins pect
Ġdisc ount
ri x
le ft
Ġbatt les
AL L
ĠD er
Ġ2 50
ĠAs sembly
Ġathlet es
ĠTr ade
Ġfoss il
Ġenthus i
ĠMan agement
P re
Ġsuspect s
Ġt ired
i ac
Ġhe lic
A ct
Ġcounter part
Ġn a
Ġd ating
ĠE th
Ġspect rum
ĠM etro
ater al
ĠSt ation
ĠB al
Ġl ux
Ġpresent ation
ge red
Ġbot tle
Ġt ap
ri ors
Ġv ig
Ġfund ra
Ġenh ance
ĠSe an
ass y
Ġtherap y
ĠW ales
ĠEx per
Ġper ceived
mark et
ĠT ok
D ef
m ath
Ġback ing
ĠF estival
Ġunder lying
Ġdef ending
ĠTh rough
Ġdiscuss ing
Ġrac ing
Ġburd en
Ġexpand ing
Ġmus cle
Ġstop s
Ġdomin ant
u z
Ġbe ings
ĠMar x
ĠE qu
Ġtrans action
ac hel
ĠU ber
Ġ9 9
C al
Ġrec ruit
it udes
ĠG ary
Ġm ood
Ġpick ing
8 1
land o
yl um
play er
ac her
Ġman agers
or able
Ġgather ing
Ġhop efully
ang le
ĠS on
ĠM it
al ysis
se ction
ĠV ideo
Ġcr us
ĠLib ya
Ġimp ression
ol ar
Ġh ip
Ã ¢
Ġscr ut
Ġro y
ĠT ai
Ġinst itution
igen ous
ĠBat man
} }
Ġst ere
ĠB oe
Ġproced ures
ĠAnd re
Ã ±
Ġp ocket
Ġcreat ures
s a
Ġcomp at
Ġarri val
w atch
Ġe ager
Ġpoll ution
it ure
Ġfood s
Ġkit chen
oc ial
Ġrec re
Ġsurv iv
ĠMor gan
ro ph
Ġorgan ic
ĠPent agon
Ġsh ipping
ad ers
Ġcapital ism
Ġtim ing
od ox
Ġins ult
Ġrequire ment
ĠB i
s ub
Ġunf air
ĠO p
Ġ5 6
Ġm ice
ĠAss ad
R em
ĠRep resent
ĠM ess
ĠML S
b ing
ative ly
ĠEl izabeth
Ġdise ases
M od
Ġindust ries
ĠOak land
d y
Ġb owl
ol n
ĠMur ray
ĠC reat
Ġs ed
Ġhelic op
Ġdiv or
ag ger
Ġbe ach
Ġpunish ment
ab et
Ġshe ll
Ġfl ed
** *
Ġhosp itals
miss ions
Ġt ons
A F
ĠK ick
Ġse ed
og y
ĠCome y
Ġter r
opy right
Ġstat ist
Ġengine ers
Ġh ire
Ġob sc
S C
Ġmod ule
A Y
am ous
Ġcoach ing
oc a
Ġans wered
T R
Ġgraph ics
Ġint r
Ġregul atory
Ġso vere
Ġst ance
Ġb ow
ĠKe ep
alt ies
C lick
Ġexpl aining
Ġrhet oric
Ġbe ating
Ġt ut
ĠF riend
ĠEm ail
ri or
ĠY eah
G e
Ġacknow ledge
ĠMic hel
Ġprincip al
Ġpull ing
erv es
Ġsign ature
br id
ol ving
Ġconv ince
e en
ĠR oll
Ġvar iable
cos ystem
Ġp ill
Ġsearch ing
ĠO x
Ġd ies
Ġover come
Ġprefer red
du ction
Ġsix th
Ġadv iser
ĠTenn essee
Ġtrend s
ĠRus sell
Ġ( "
ĠTh ompson
ar re
Ġmer ch
Ġreb els
Ġinter action
Ġperiod s
ĠY an
Ġpsych ological
M ich
ĠS ure
em ic
ĠUs ing
Ġeconom ics
ĠCharl ie
Ġout lets
ĠG il
ĠZ e
Ġsign als
Ġe cho
ĠEx ecutive
ĠKent ucky
Ġtem por
Ġbill ions
p g
Ġline up
Ġm ath
20 13
Ġ199 1
Ġset up
Ġre nd
F inally
net ic
m ic
Ġegg s
Ġse gment
Ġbad ly
Ġar r
ke e
ĠL i
Ġsent enced
Ġevery day
ĠDr agon
ĠJ ean
Ġcommand er
ĠH art
ĠH oll
ĠA N
d s
Ġl oves
unicip al
w ill
Ġgen es
N BC
Ġb old
Ġrequ iring
Ġbul let
Ġinv asion
C omm
ĠInte l
Ġpart ly
Ġesc al
che ck
Ġg ene
Ġar ts
Ġrem oval
Ġunder t
Ġu pload
Ġinst ant
li est
Ġtop ics
ĠI ron
Ġ !
enez uel
Ġinqu iry
Ġam endment
Ġweak ness
ĠR ather
new s
Ġconcept s
P L
h as
Ġsh oes
ĠS ound
gr ade
Ġfab ric
iz za
E arlier
ĠDel hi
ts burgh
Ġfrequ ent
v ia
Ġse ctions
c or
Re g
Ġocc urs
ol i
Ġm igrants
Ġcompens ation
ĠB ox
Ġengine er
en ess
Ġg ig
Ġl ad
ĠF inally
Ġf o
Ġattract ive
Ġun ve
in stein
Ġ ).
u i
Ġc iting
Ġtwe ets
ĠMc K
Ġut ility
aren cy
Ġpost ing
Ġridic ulous
Ġblock chain
Ġcl er
ĠCl ark
Ġspeak er
âĶ Ģ
Ġdi am
g us
Ø §
Ġcor rupt
Ġtal ented
Ġle ct
Ġcoll aps
Ġm ask
âĢ Ĳ
ne cess
sc reen
Ġnot able
ĠThere fore
Ġe lder
Ġgen re
Ġdead line
Ġro lling
ĠB M
Ġcar ries
T op
ĠF inal
ĠE T
ent al
Ġappro aches
Ġelimin ate
ĠPri v
Ġanaly sts
Ġs its
Ġc ens
St ate
Ġinst ances
ĠSim on
Ġpubl ishing
Ġcol our
Ġunpre cedented
Ġro ots
ĠPh oenix
V P
Ġc ock
Ġb ene
ĠP sych
Ġtox ic
ĠHe art
Ġcollabor ation
Ġar c
Ġinequ ality
Ġneighb ors
Ġins ight
Ġdram atically
ĠHar per
Ġhom osexual
Ġpri ze
Ġtown s
Ġextra ordinary
Ġper ception
ĠG ordon
ĠPh ill
ĠWhe ther
Ġpar ad
Ġg est
arg et
Ġmain tenance
ows ki
row ing
ĠG O
Ġche aper
is dom
Ġassoci ate
ĠG ro
Ġcou p
M ark
ĠE vent
Ġshe et
ĠB ow
est ed
ĠBel ow
ĠS av
p ack
ĠCap tain
Ġcogn itive
Ġencour aging
Ġd reams
ĠP ers
Ġse ized
Ġinterview ed
Ġdeploy ed
Ġcamp s
Ġviol ations
Ġcom ics
Ġconstit u
ĠRe agan
Ġbu ck
Ġreserv ed
Ġemploy ers
Ġaim s
at us
Ġfunction al
Ġmyster y
Ġdisplay ed
P aul
ib an
Ġsp an
Ġlo op
Ġde light
ap ore
c re
A B
Ġtr aged
ĠEconom ic
ixt ure
Ġ5 7
ric ane
Ġgl ad
Ġoccas ionally
Ġv end
Ġex port
T ON
Ġbirth day
ĠS a
g al
ll y
Ġhero es
Ġfat al
est yle
og a
Ġcorrect ly
on z
Ġprom pted
w a
Ġst amp
ĠCo le
Ġcontem porary
ĠA ccess
ĠJ enn
Ġprospect s
ot ing
v i
end ar
Ġir re
Ġrecommend ations
m ir
Ġdiplom atic
th rop
igh th
Ġp a
Ġexc lud
Ġparalle l
Ġconst itution
Ġdisappoint ed
Ġad equ
Ġmanufacture rs
ĠSt aff
Ġmoder ate
ĠE ver
ĠD og
Ġe cosystem
Ġaccomp an
el ing
Ġdemand ed
T ime
Ġ8 5
ĠG DP
ĠPhot os
Ġn ose
ĠMont real
ĠD ick
ail able
Ġinter pre
Ġple ased
20 17
Ġlab our
Ġlif etime
ĠBrook lyn
ĠT ax
ĠE st
ĠRes erve
ro ck
Ġcommunic ate
Ġfight s
Ġmod ified
Ġdr unk
ĠO cean
Ġs essions
Ġwedd ing
Ġkn ock
Ġexplos ion
ĠL ibrary
Ġbi ological
Ġland ed
ĠE PA
Ġ5 8
Ġrep air
ĠAuthor ity
Ġsub sc
Ġrepresent ation
ĠG iven
ĠB ol
Ġartific ial
2 50
le ans
F i
Ġrel ation
Ġown s
ĠKh an
ix on
ĠAnton io
ĠDig ital
Ġl ift
ag en
Ġdesign er
Ġrec on
Th anks
Ġem p
Ġconscious ness
Ġkick ed
ĠOr der
Ġdef ender
Ġh anging
Ġless ons
h ist
Ġimp osed
ĠB ul
Ġgu ests
Ġadop t
Ġan onymous
1 50
Ġs li
Ġconcer ning
f it
w ind
ĠF ive
Ġpregn ant
inc oln
Ġunder ground
w ed
Ġmaintain ing
ac re
Ġass et
ĠCh annel
ĠAl an
Ġp unch
ĠR ome
ol s
) <|
bour ne
Ġsh irt
Ġingred ients
Up date
Ġche ese
Ġinte llig
gr aph
is ition
ĠCon vention
Ġinter ior
Ġpod cast
ch ing
Ġemot ions
": "
h uman
ĠAr gent
Ġab stract
Ġcou ples
Ġless on
Ġcreat ure
Ġres olve
Ġsh ocked
Ġopp ose
W he
Ġsum mit
ĠS U
Ġperform ances
Ġvolunte ers
ĠB urn
D is
s ome
Ġsold ier
Ñ ĥ
Ġstim ul
Ġlog o
à ¤
app ropri
b in
Ġv ocal
Ġacc um
w ich
Ġg irlfriend
ĠProte ction
ist ant
ĠD ur
b en
ult y
S E
Ġjump ed
Ġann oy
ĠP age
Ġj ihad
Ġm ile
Ġn urs
g ate
ĠL ear
us er
Ġmilit ants
Ġgu id
ĠMiss ouri
Ġprofession als
G ener
ac les
( "
ĠAn na
ik h
Inst ead
Ġbut ter
ial s
Ġs wit
Ġref ers
Ġdesk top
Ġtravel ing
Ġl ibr
g ets
Ġisol ated
Ġfor um
Ġadvoc ate
Ġexist ed
ĠL im
Ġopp osing
ĠH an
ĠCo al
Ġrec alled
St ation
ĠC ase
Ne xt
Is rael
Ġ6 00
Ġintegr ation
Ġdescrib ing
Ġbox es
ĠJava Script
ĠF ant
ĠOr leans
ear ly
Ġst ro
ĠH al
C D
ĠM ail
Ġmin imal
tain ment
ĠC ustom
Ġconf used
ĠS D
ump h
ab e
Ġpeace ful
Ġin herent
od ge
c al
Ġsurround ed
el le
ro t
own ed
Ġ vert
ĠCap itol
hatt an
ĠH and
com mun
Ste p
Ġh oles
Ġme al
ĠR s
d r
Ġ198 9
Ġintegr ity
ĠB an
ĠK now
ĠPlay er
Ġp m
Ġinspir ation
Ġconfig uration
Ġs ne
ĠTr ust
ð Ł
he ro
Ġexp ense
Ġcred its
ĠN on
Ġsub ur
Ġelect oral
Ġide ology
Ġd ual
Ġy ell
Ġsil ent
ĠMar ine
ĠDo ctor
Ġst ack
ĠBar b
Ġsusp ic
e xt
Ġbur ied
ĠNev ada
i ens
T E
Ã §
im ize
Ġdesper ate
ĠO cc
st arter
Ð º
Ġsc ream
Ġcl ip
Ġcho osing
Ġbom bs
Tr ans
ĠC B
Ġb ands
Ġteam mates
Ġfle et
ĠS H
âĢ¦ .
Ġcon vert
t ra
Ġaccept able
ĠOr lando
ib l
Ġj er
ĠW right
Ġregist ration
L ist
G u
ĠE ve
ĠPort ug
ĠHit ler
Ġbrut al
S U
aw ks
N et
ĠM ove
Ġsc ar
Ġan cest
ĠOn line
ĠAll iance
e lection
to o
Ġsubscrib e
Ġstrugg les
Ġkey board
Ġmoment um
ĠLe ban
ĠAre a
ar o
Ġpromot ion
ĠAr senal
ĠV en
Ġev ident
F l
Ġqu it
h ire
N ame
f ather
Ġorgan isation
ĠInd ones
Ġwond ering
Ġclos est
m its
ĠSte el
Ġembr ace
book s
ĠFollow ing
ĠH amp
Ġrefuge e
Ġte eth
AR T
Ġpro be
Ġut ter
Spe aking
Ġat he
che ll
ĠW ord
Ġoccas ional
Ġmon ster
str ong
Ġas sembly
Ġbank rupt
Ġref erences
Ġjournal ism
is d
Ġexp enses
Ġsubsequ ently
gr ad
st op
ok er
Ġpr ide
Ġgu ards
Ġinterpret ation
ĠV enezuel
Ġy eah
ï ¼
Ġl in
G l
h r
ĠM un
Ġor bit
Ġrem oving
ĠInd ependent
ĠW rit
Ġprof ound
ip edia
20 12
ĠPit tsburgh
Ġcomprom ise
Ġkn ife
Ġdistrict s
Ġexclus ively
Ġsurv ived
ĠS ource
Ġconsider able
Ġmathem at
Ġst ating
Ġeng aging
ĠC ould
Ġref use
Ġb ird
Ġcharacter istics
ĠMount ain
Ġl obb
G r
ĠR aj
Ġjust ify
H P
Ġdom inated
Ġ7 2
Ġpro st
ĠN azi
Ġbrief ly
b ound
ars on
ĠR est
Ġch ip
Ġmin isters
Q L
Ġelect ron
re nd
Ġtremend ous
Ġcont rary
Ġsustain able
Sh are
Ġload ed
Ġfl our
Ġdisapp ear
Ġnerv ous
Ġg ri
Ġrout es
orne ys
Ġpro portion
ot te
Ġsoph istic
at tered
Ġexecut ed
oc ated
ĠD uke
ut ter
Ġas ylum
ĠEvery one
Ġgame play
Ġsex ually
Th ank
He y
am ine
Ġp ir
in st
Ġdon ors
ĠB u
Ġconf usion
ĠD ream
Ġrevolution ary
c ap
ĠA aron
el ve
ĠAnd y
Ġcur ious
ĠTre asury
Ġh arsh
lim ited
li hood
inc ome
K E
Ġatt ending
Ġ8 00
ĠAd ams
im mer
ĠI M
Ã ¨
sec urity
U C
Ġspeak ers
Ã³ n
Ġc abinet
ree k
Ġnow here
ing e
Ġfle e
Ġv oid
Ġbr ands
Ġch ronic
Ġprint ed
ĠTes la
A g
ou b
Ġcharg ing
Ġeng ines
re ck
Ġphys ics
an im
ĠH aving
ur se
ĠA lp
Ġconcer t
sc ar
f unction
ĠSher iff
Ġout comes
ĠA ren
ĠOff icer
M AN
ubl ished
ol id
ĠM ult
Ġo rient
Ġmir ror
Ġstreng then
ĠG ib
th ood
Ġfail s
Ġsp o
ĠJ un
. ]
Ġobs er
Ġcha os
Ġpass enger
ĠiP ad
ĠCur rent
Ġcrimin als
Ġf el
ĠSp ir
Ġstead y
ĠRob inson
7 00
R ed
ĠNet her
mer ce
ĠÂ ±
Ġrob ust
ĠC ON
ĠMan hattan
wh ite
I E
Ġend ors
Ġspec ulation
ĠCh ange
ĠSh ort
res hold
Ġcert ific
Ġde emed
ĠTal iban
Ġdro pping
Ġh iring
ĠN orm
ĠGi ants
ĠSing apore
C or
Ġintegr ated
ĠPer ry
Ġpres ents
ĠT s
ĠB and
Ġav o
ĠF A
Ġguarante ed
app er
Ġf ert
Ġep ic
Ġle aked
ĠK ings
Ġpack ages
m ble
Ġple asure
B N
op t
Ġsusp ension
Ġchalleng ed
Ġpack ed
g ood
Ġcheck ing
à ¸
Ġb its
Ġv it
ĠK it
Ġeng agement
Ġrad iation
Ġsl ot
Ġbomb ing
le ep
Ġpat ri
Ġal ert
Ġd a
P al
ist le
ĠH u
Ġw et
r ics
Ġhun ting
ĠT el
ĠUS B
ri v
Ä ģ
ÃĥÃĤÃĥÃĤ ÃĥÃĤÃĥÃĤ
Ġprodu ces
Ġwitness es
ĠC raig
oph ob
ĠP ant
Ġedit orial
Ġdef ended
Ġrec overed
ĠH oly
ĠR ou
Ġdevelop ments
Ġbo om
Ġsimultane ously
ĠL og
Ġbacter ia
Ġblock ing
B r
ĠL ater
C ar
ment ed
Ġ5 9
Ġattract ed
Ġ6 6
ĠO pp
Ġfig ured
ĠH ung
Ġcor rel
Ġall iance
Ġresearc her
ĠEnter tainment
Ġtaxp ayers
ĠL es
ĠN one
Ġcap s
c ard
ĠJ eremy
Ġhost s
Ġc inem
Ġpat ent
ĠRuss ians
iz arre
Ġexam ine
AT CH
ĠF uture
Ġvari ables
ĠL incoln
if ier
Ġo xy
Ġem bed
---------------- ----------------
Ġj unior
ate ful
lyn n
Bl ack
ut er
on ed
ĠChair man
ĠT ower
Ġpubl ish
ĠG h
J P
Ġt ear
Ġ6 2
Ġmet h
g ly
ĠB or
D R
ĠV lad
d ep
Ġv ent
ĠPol and
ĠStud ies
ĠUkrain ian
ades h
gg ed
R ight
Ġen act
m ay
ĠD ak
Ġfl ights
om ic
Ġaccur acy
Ġfl av
Ġdist ribut
Ġl os
Ġimpact s
Ġsurprising ly
Ġsol o
Ġra ises
Ġburn ed
Ġr ic
ĠS ci
Ġang le
secut ive
Ġbre ast
ĠW ould
Ġev ac
ĠSte wart
Ġqual ified
Ġdecre ase
t own
ĠC PU
v as
n ie
Ġev olved
Ġfl avor
olit ical
Ġun necess
Ġas semb
ĠT otal
Ġintim id
im ir
Ġcourt esy
ĠO R
n an
ER E
Ġfing ers
ĠMP s
r ition
Ġproduct ive
Ġv oc
Ġbl amed
ethe less
ĠH IV
Ġdepend ent
Ġexpect ing
Ġtransfer red
ĠR angers
Ġen abled
Ġident ical
Ġvis its
Ġexpect s
Ġl ane
ĠG ill
d ict
Ġign or
Ġacc ord
ĠU b
ĠGr iff
ĠW i
ter ror
is hers
B ook
Ġv enture
d f
ĠC C
Ġb arg
Ġsh ops
Ġdepart ure
ĠComm and
ie re
ĠMiss iss
T O
Ġkill er
Ġrepe al
Ġmotiv ated
Ġstri p
Ġrest ore
Ġagree ments
Ġconflic ts
Ġorgan is
th odox
ĠD u
Ġsc ared
Ġforg otten
ĠTh ink
id en
ick ed
ul se
b ian
Ġin her
Ġnation wide
ĠEd ition
Ġcy cl
Ġcrit eria
Ġinflu enced
ern and
Ġoccup ied
ĠB C
Ġanim ation
Ġtrail er
Ġrank ing
ĠP ope
ĠN i
ĠSh ould
ĠTh ings
Ġ `
Ġback s
ah oo
Ġtele phone
Ġoccas ion
ab out
un ity
Ġanal ys
ĠRed dit
Ġfunction ality
Ġcheck ed
Ġconcent ration
ĠMod el
look ing
Ġhousehold s
l ink
Ġre ass
ond uct
Ġalgorith m
Ġcour age
ra h
ress ing
ĠSupp ort
ĠH ug
Ġpromot ed
Ġimp rison
am ents
Ġexplicit ly
Ġbat ter
le ted
Ġdes p
Ġbab ies
Ġt anks
Ġo ught
Ġst atic
ou p
ĠPro duct
Ġrele asing
Ġant ib
ĠPl ace
ri ke
Ġsub tle
For mer
art ed
Ġb ases
Ġst ats
IL L
Ġdo ct
l arge
u ating
ag ine
ĠJ erry
Ġprivile ge
ĠMore over
b at
ipp i
ĠWar ner
ĠN O
Ġmet ers
Ġentr ance
ac o
M B
Ġtow er
Ġinvestig ated
Th ree
Ġsen ators
z one
ĠC old
ĠCanad ians
Ġh ub
Ġw ise
ĠE b
Ġover l
Ġappl ies
Ġform ula
ĠStand ard
oll ar
ĠEgypt ian
ĠChrist opher
Ġm art
Ġinev itable
bre aking
Ġuncertain ty
Ġprov ider
act or
Ġpain ting
Ġcontin u
Ġmod est
Ġl ens
Ġinflu ential
Ġdest ination
ĠQue ens
Ġun re
ĠM ap
iz ations
for ward
Ġch ips
be ing
S upp
Ġall y
Ġinfect ion
Ġd imin
le ading
" ,"
ĠUn ivers
Ġj et
k es
Ġsole ly
Ġbel t
Ġsc rew
Ġin aug
Ġ6 3
Ġins ist
G ood
Y eah
ĠT R
ĠN iger
Ġthe ft
u ccess
ĠM arg
ĠAl aska
Ġpolit ician
Ġtransp arency
ĠPlay Station
Ġinvest ed
g ov
Ġsing er
Ġimm une
ĠOtt awa
Ġprov isions
ist ance
Ġp y
ĠSt ock
Ġhand led
o vers
ĠJ ane
Ġuncom fort
amp a
ĠOlymp ics
ĠLouis iana
Ġimp ressed
Ġin box
ĠO il
Ġoper ator
S D
ard o
unt u
ĠNether lands
Ġball s
E m
Ġt ent
il ation
ĠK r
Ġcol leg
Ġb ol
Ġsim ilarly
Ġlif estyle
off s
com p
Ġhead lines
id al
Ġbo ards
rif ice
n on
ĠTre k
Ġdis abled
th ur
ix el
ĠStan ley
B ar
Ġoper ated
ol as
Ġregard ed
ĠTy pe
Ġlaunch ing
ĠS N
Ġrel uct
ĠEx p
ach ment
D own
ĠM other
w all
i ar
Ġphotograph s
Ġvol unt
s uch
ĠD rug
Ġkid n
? âĢĻ
Ġsa ke
c itation
Ġke en
tr ack
r c
Ġdet ention
Ġcon secutive
Ob ama
v ar
Ġg ym
ĠUn like
m illion
in ite
). [
ĠBl ood
? )
Ġprosecut or
Ġfil ter
Ġprosec ution
ke ley
Ġsu ck
on ing
angu age
Ġconv iction
ut her
Ġearth qu
Ġle an
Ġro lled
Ġk iss
ĠT able
ar med
ist a
ĠMod i
eral d
ĠCorpor ation
ĠCapt ion
t arian
ĠCor p
bit ious
Ġbul k
ĠB ir
ĠHamp shire
f irst
Ġm ales
ĠF O
J o
Ġin ex
Ġt ears
Ġtraged y
ll or
Ġch ocolate
ig e
Ġm ouse
Ġpo et
Ġpres erve
Ġguid ance
ĠF ather
ĠBe ing
Ġle ak
ĠSc he
ĠPhilipp ines
B el
ĠFore st
ur ches
v o
Ġb ags
ass ion
Ġn u
ĠS everal
Ġrec k
Ġdest ro
bl ock
Ġexam ined
r in
Ġsy nd
Ġaccept ing
Ġel abor
Ġmiss iles
Ġabs urd
F urther
Ġbene ath
Ġne ur
Ġparticip ating
viron ments
Ġ1 000
ĠH ans
b es
Ġneighborhood s
ĠD a
uck er
ĠStan ford
Ġcompe lling
Ġreflect s
Ġcompl ained
ĠW y
Ġad ap
Ġb other
Ġcontro ller
Ġlux ury
ĠVictor ia
ĠMar c
ĠEd it
te x
ĠCl oud
ĠM orm
l aim
Ġthe ater
ĠMar io
Ġen for
ĠN elson
Ġshel ter
st ra
ry ing
boy s
Ġf er
ĠMedic are
spe ed
ĠT am
Ġf its
ĠGr ant
ĠMedic aid
Ġjur isd
m ons
ous es
Ġpost er
ust ing
Ġ< /
ĠK night
Ġcons ists
o pp
Ġp ose
Ġsignific ance
ĠFil m
Ġpo lling
Ġsto pping
Ġoccas ions
Ġb one
ĠD E
ĠTok yo
ĠRub io
ĠC as
Ġwire less
Ġreal istic
Ġexc use
ay a
ĠL ocal
ne g
ĠIm m
Am ong
friend ly
E ach
ĠV in
ĠCh ron
âĢĿ )
Ġt ension
Ġaccompan ied
Ġsee ks
ĠG ard
Ġback up
ot ion
Ġrese mb
Ġmand ate
Ġthe oret
ĠContin ue
or ate
Ġass ists
Ġposs ibilities
ĠW inter
ĠQu est
f ish
Ġbet a
Ġaccus ations
Ġadv ent
Ġcook ing
ia h
ĠC R
ĠP a
ĠCh ampions
ĠAb u
Ġin hab
Ġsupposed ly
p ing
ĠSnow den
Ġemphas is
Ġfin ishing
ĠD al
amb ling
ĠS port
Ġsust ained
Per haps
c at
ĠMal ays
Ġbeat en
ĠS EC
Ġb ump
ite ment
ĠP ear
ĠH ad
Ġa wards
Ġd ressed
Ġproject ed
ism s
ĠNot hing
Ġt orn
Ġinnov ative
ĠEvery thing
ĠM ind
Ġaffect s
âĶĢ âĶĢ
Ġpol ar
Ġprevent ing
Ġconstruct ed
ĠFl ash
ber y
Ġlong time
AT ION
th al
Follow ing
Ġf ed
ĠS ection
te ch
Ġfuck ing
Ġer u
Ġg arden
Ġ3 60
ĠAb d
I O
ĠOrgan ization
Ġspeed s
Ġoper ators
Ġg ut
il st
ĠFin ancial
Ġdr um
Ġman ual
Ġout standing
Ġpass word
Ġmortg age
ĠHam as
ĠK a
Ġent ity
Ġrec ession
c ott
ĠN ich
ĠPy thon
Ġw isdom
ĠN ature
Ġdocument ed
Ġtrad ed
Ġint rig
ĠSte am
un a
ĠI V
Ġg olf
ĠJim my
Ġoccup ation
ĠKurd ish
Ġf ut
Ġold est
Ġdocument ation
Ġfavour ite
io x
Ġpra ised
Ġresident ial
inc ial
Ġspot ted
Ġcop s
cent ury
ug by
Ġreven ues
ĠComm ons
ĠTh ird
Ġlay ers
Ġwal ks
ĠM A
olit an
Ġinteract ions
ĠPatri ots
Ġsur ge
ch arg
Ġb icy
Ġaw ful
Ġpan els
Ġthe r
Ġcalcul ated
Ġinf ant
Ġcirc uit
c ular
r ons
D C
Ġ6 7
Ġexperiment al
â Ĥ¬
Ġrenew able
Ġautom atic
ĠC L
Ġd irty
Ġmyster ious
any ahu
ĠS oft
Ġtr ains
ĠL ad
ĠOther s
Ġth reshold
Ġt ale
M on
qu es
ĠN ash
Ġ6 8
er r
ĠK al
Ġdeal t
ĠR h
Ġreview ed
Ġ6 1
âĸ Ī
l ied
Ġpain ful
Ġgl obe
ĠC itiz
om er
ir s
Ġco in
Ġtri ps
ĠTr ue
ĠAir port
re qu
ect s
ĠWay ne
Ġcle ared
Ġearn ings
ell o
~ ~
ard ed
Ġcross ed
B en
ll i
Ġadminist rative
Ġconven ient
Ġgraph ic
Ġr iders
ĠE mer
ĠN ik
Ġl ady
Ġliber ty
ĠF le
Ġr anging
Ġb izarre
Ġp our
Ġit er
ĠB ah
ut o
Ġhe s
for mer
Ġdispl ays
Ġicon ic
Ġen vironments
Ġrob ots
Ġmother s
Ch ina
Ġhost ing
Ġam bitious
Ġ198 8
ow der
sel ess
Ġdes ert
Ġres erve
be at
Ġsec ular
Ġsent iment
Ġpred ec
P s
ĠMc Donald
j amin
ur i
is ive
On ly
Ġconver ted
ĠCl imate
Ġtiss ue
? <|
I d
ĠMur phy
ĠL arry
ĠS in
or i
Ġt um
ĠA FP
ĠF OR
Ġdrop s
ĠDe an
ĠDe ep
sh ore
D id
Ġexplo it
ĠP i
w ords
ĠRed s
ĠSum mer
k ind
Ġcreat or
Ġres ort
Ġaddress ing
Ġan ch
Ġs ons
Ġh iding
Ġsafe ly
Ġatt orneys
Ã ¥
Ġdevast ating
D E
M art
EM ENT
t wo
Ġsp ray
Ġsleep ing
u ably
Ġcross ing
Ġp ension
ĠS ac
Ġrestrict ed
Ġarrest s
Ġw ore
ĠP ir
Ġscrut iny
IC E
Ġunf ortunately
put er
u j
Ġbur st
Ġlibr aries
Ġdepart ments
Ġmurd ered
Ġcompet itors
ĠWh it
ĠT an
ĠD rive
Ġwh is
Ġal ign
p in
Ġcontain er
Ġavail ability
Ġnewslet ters
Ġfil ing
ĠSing h
k ward
Ġadop tion
ail ing
Ġnewsp apers
Ġm isc
at ter
Ġproduct ivity
Ġto ss
ph an
o j
b et
Ġre ign
Ġbuild s
ĠS E
Ġdisc rimin
Ġpregn ancy
ĠN S
Ġover night
cel ona
m ap
Ġappear ing
Ġindic ation
ar ians
Ġear ning
Ġpubl isher
ight ing
Ġcomb ine
c ount
Ġview ing
Ġd uties
AS H
oy d
ĠMan ning
Ġf ishing
Ġreflect ed
is ode
ari os
Ġuncomfort able
ĠMag azine
Ġt u
Ġreg ret
go vernment
Ġm unicipal
ĠFurther more
ĠE nt
n amed
Che ck
d ata
g ence
ĠN ative
ag u
d ev
Ġhor rible
b ably
Ġchemical s
Ġrel ie
Ġan onym
Ġc ave
o op
ac cept
Ġsepar ated
May be
u els
Ġsophistic ated
W orld
Ġr ivals
or ia
Ġre wards
ĠF ig
Ġv iable
Ġdes erves
Ġpr icing
Ġact ed
ĠPh ys
ĠWik i
Ġrel atives
Ġin du
ĠM and
Ġwin ners
Ġre cept
ĠMad rid
Ġsl ide
Ġprepar ation
vers ion
Ġequ ipped
Ġr itual
Ġlimit ations
ĠCh rome
ĠIn n
ern el
Ġ198 4
Ġamong st
Ġcomplex ity
ĠRon ald
Ġ= =
Ġmechanism s
Ġpe er
Ġcomm od
les h
Ġparam eters
ĠF ederation
Ġfire arms
Ġcar rier
Ġb ip
Ġto b
ĠN az
s ize
Ġsuggest ions
i ors
Ġdelay ed
ĠBl u
ĠHT ML
Ġexpl oring
Ġme ets
win ning
Ġtou g
Ġ198 6
Ġco ord
ĠTai wan
Ġlight ing
Ġcur ve
Ġstart up
ell er
em it
ĠColl ins
Ġintellig ent
Un fortunately
Ġg host
Ġcelebr ated
ĠMississ ippi
Ġab und
Ġce ase
are r
Ġinter ven
b urn
Ġquiet ly
ĠP oll
Ġens uring
ĠD omin
X X
AT ED
Ġreb el
ĠL uke
Ġnight s
Ġm m
qu er
Ġcollect ing
20 11
Ġtransl ation
Ġworld s
Ġdet ained
Ġor ange
ĠMcC on
prof ile
DA Y
Ġbe ef
Ġemploy er
ĠD VD
ĠLe vel
P at
Ġrad ar
Wh ite
Ġinstall ation
ĠBl ock
Ġdeliver ing
Ġco ins
Ġdesign ated
Mich ael
Ġm igration
Ġdeb ates
Ġ) ;
em in
TH E
od a
ĠMel bourne
Ġpled ge
Ġcat ast
am an
ĠS ex
ĠE C
Ġgr ants
Ġca ution
Ġoff season
Ġnot ably
R O
Ġbug s
Ġtable t
hy th
Ġthem es
u ates
ĠEx press
Ġw rap
n atural
Ġgold en
Ġdeleg ates
Ad vertisements
Ġcour ses
âĢ ³
Ġcount less
ĠD isc
ĠEag les
ĠB ab
Ġgrad ually
Ġwitness ed
ĠQue bec
al id
Ġcomm ands
ĠCub a
c ode
ĠCoal ition
med ia
m id
Ġt ends
ĠSm art
ĠN a
ĠO w
Ġviol ated
Ġmean while
Ġpsych iat
Ġdemonst ration
p ot
Ġdem o
ĠC rit
ĠP od
form ance
Ġcomment ary
wit zer
ĠSwed ish
Ġann ually
Ġfor b
Ġp ending
ond s
ĠHe at
Ġobserv ations
Ġth ro
ĠN ap
or ical
ath on
ĠS aint
op les
ers ion
arent ly
ĠT oy
arm a
Ġf ires
Ġremem bered
Ġquestion ing
ren cies
Ġcor n
F S
Ġlapt op
Ġver ify
ru p
Ġimp ose
Ġhighlight ed
Ġrepl acing
/ .
Ġse eds
ĠL ady
Ġcont ents
Ġh unt
Ġpre view
M edia
el come
Ġfrust ration
ĠMarsh all
Ġdiscipl ine
Ġpat rol
Ġsupp lement
Ġpoor ly
ond a
ude au
Ġcom ed
Ġgra ve
ĠPro gress
Ġpra ise
ĠAr ts
ĠPe ace
Ġf urn
ĠP el
Ġbath room
ra it
Ġact ress
Ġas pir
Ġhapp iness
ĠK y
Ġexpl oration
ĠR ound
Ġgent le
om ach
Ġcru el
ĠL ions
Ġst arter
out ing
ĠHun ter
ĠBl ake
Ġprevent ed
Ġch amber
f i
ĠL en
ĠW ard
Ġpr ayer
M in
ĠSt orm
Ġcult iv
ĠM as
Ġper mitted
Ġven ue
Ġinst antly
W ar
Ġoxy gen
ĠH uff
Ġalt ogether
at al
ur ities
Rep ublic
Ġbond s
Ġamb assador
ĠBe at
ĠMot or
. ),
Ġare na
ug s
Ġcon ced
ĠBer keley
Ġdisapp eared
Ġplan es
Ġ7 6
Ġtechn ological
st ring
f ile
sh ot
ier re
Ġsuggest ion
ĠRog er
Ġpart ially
Ġagric ulture
ĠA y
anc hes
Ġun l
Ġd il
Ġdr inks
ĠCamp bell
ĠFer gus
fl ow
Ġs izes
T witter
g roup
Ġincor rect
Ġprotect ions
ĠF R
h ill
Ġfasc inating
ĠAm b
oc ur
ĠEnvironment al
ĠH ann
ĠChristian ity
Ġvacc ine
ĠHawai i
ĠAdd itionally
Ġlog ical
Ġpar ks
ĠM uch
au cus
Ġsty les
Ġsupp orter
Ġhonest ly
Ġad j
Ġal ike
ĠL aur
appropri ate
ĠNC AA
Ġpro l
Ġtob acco
Ġmarg inal
ĠG ene
en cer
Ġsum mary
Ġto ll
ĠG re
ĠV ar
olog ically
Ġfle w
ĠKick starter
Ġadv ised
Ġheart s
Ġcomp r
Ġsing ing
Le aks
Ġw ound
The ir
Ġappoint ment
ĠQ ual
ĠFor ces
ĠCongress ional
Ġeth ics
tt es
Ġst unning
Ġt ar
es ides
ĠJ en
Ġcap ability
ĠG ab
ĠMit chell
Ġtrans mission
Ġenter prise
ĠVlad imir
ct ive
Ġmet aph
ch ron
ĠSpe aker
Ġp owered
Ġpros per
Ġbl ast
ĠMan ager
Ġreact ions
iv an
ĠEd itor
Ġess ay
Ġelect rical
Ġc ous
pl ing
p y
Ġst ressed
Ġha z
b u
st art
ĠT odd
Ġfac ulty
Ġm akers
ĠCor ps
Ġas h
ĠAren a
Ġce iling
Ġsk et
Ġder ived
ĠRe id
s k
Ġsevent h
ĠN ame
Ġmount ains
Ġceleb ration
Ġr ice
Ġpress ing
Ġarg uably
g ments
Ġdraft ed
Ġc rown
Ġdam n
Ġdep os
lect ed
Ġra id
ĠJ ess
F e
ĠOr ange
ĠR T
ĠU I
N T
ĠB enn
Ġend less
Ġtravel ed
l as
Ġcompl ain
U D
ĠS essions
Ġdr ones
ĠIm p
ĠCommission er
ĠOx ford
T IS
Ġin eff
ĠBr us
ĠR ow
Ġaw kward
Ġbu nd
g ary
ore r
witzer land
Ġapp lying
ĠWat son
Ġsac rifice
Ġaccompl ished
Ġshoot er
( '
d am
Ġbub ble
Ġwe aken
ult s
T ake
ĠF lynn
Ġep id
on ia
Ġmechan ics
Ġassum ption
augh ters
Ġadvoc acy
Ġc ats
im s
Ġhost ile
Ġbre ach
Ġreveal ing
B L
Ġfr act
Ġrespect ive
st orm
hand ed
Ġscr atch
H ave
ĠMod ern
S everal
at in
Ġexpert ise
ĠDak ota
Ġdev oted
Sec ond
ĠR ap
at oes
ĠPark er
h ol
ĠInd ians
ĠB aker
b ie
Ġan arch
m are
Ġcirc les
Ġstrong est
ĠCh all
writ ten
Ġfocus es
ip her
Ġsh ocking
ĠK as
Ġsw ord
Ġcal endar
ue z
Ġaud iences
Ġm ic
Ġl one
ut t
Ġcitizens hip
Ġbuy ers
ag raph
Ġconfirm ation
ĠMedic ine
W S
um ing
Ġsp y
E ng
form ed
Ġtr ucks
Ġl ung
Ġpartic les
Ġfr ank
Ġacqu isition
Ġconclus ions
v ol
id th
Ġcomput ing
Ġsa uce
â Ħ
B re
ĠLaw rence
uer to
m atic
Ġunnecess ary
Ġdirect ors
o ard
D ata
Ġl yr
ĠD ate
t it
Ġline back
Ġ7 00
act ory
Ġpen alties
Ġdec or
it ate
h alf
Ġlong est
G M
Ġrespond ing
ĠTem ple
li ver
pie ce
n or
v ious
20 10
H ist
it ivity
and ed
ĠF ind
Ġbit ter
ĠE D
M en
b rew
Ġst ir
ĠRes p
ĠH us
oc us
by n
at re
Ġhistor ically
Ġent ities
ĠD or
ĠMor ris
Ġad vertisement
Ġinter rupt
Ġp or
Ġadd iction
Ġy ard
Ġbe ars
Ġpl acing
ĠY ang
Ġcontribut ing
Ġbound aries
Ġg reet
Ġqual ify
st an
ĠFergus on
j an
Ġunderstand s
Ġcomp osition
Ġd uration
? '
Ġquant um
bor ne
ĠHot el
um m
Ġconvers ion
m art
Ġsh ake
Ġfrust rated
Ù Ħ
Ġcoordin ator
ĠLeg isl
k m
Ġoper ates
M ed
z es
Ġorient ation
Ġhack ing
ĠSaf ety
ĠBar celona
P I
s ur
M M
Ġc am
Ġst un
In ter
G iven
ĠR oc
ĠRec ords
d i
Ġpri est
Ġfemin ist
le ments
ĠP rom
ĠHis pan
ĠJac ob
B ig
Ġ198 7
ac ular
and y
Ġdist ant
Ġmotiv ation
Ġfast est
ĠS ud
mind ed
bo ards
Ġgro cer
Ġpain ted
Ġpop ul
ĠI an
S et
ĠNet anyahu
âĢ ĭ
out heast
Ġped est
ĠF CC
lim inary
con nect
L a
ĠR ain
IS T
Ġd ensity
Ġn ode
ĠU C
PD ATE
Ġovers ight
Ġtun nel
Ġexperien cing
Ġcontro lling
Ġcount ies
Ġm ild
ĠR y
ĠH end
Ġsaf er
ĠS ong
Ġt ill
Ġv ague
Ġ197 9
f s
Ġdiv ide
ĠF if
ĠB E
ĠSw iss
ab ling
Ġtrans formation
Ġdirect ions
d ec
Ġrece ives
Ġsent ences
Ġimper ial
Â ·
F igure
Ġu gly
le ton
Ġsl a
H ar
Ġilleg ally
Ġsup rem
com ed
Ġprob ability
Ġint ensity
Ġcomp osed
E uro
ac ies
Ġenjoy ing
ĠC os
ac er
ĠAbb ott
w estern
Ġhe aven
Ġd ign
s upp
ĠS ide
Ġmand atory
spe cific
AC K
Ġconserv ation
Ġachieve ment
Ġg aining
ĠRem ember
ĠBloom berg
Ġins ane
ĠAgain st
Ġagric ultural
d ing
Ġbal anced
Ġ6 9
Ġcondem ned
Ġst omach
Ġ198 5
Ġres idence
ĠL ie
Ġdist inction
Ġprint ing
Ġp ione
Ġemer ge
Ġprot otype
ĠB eng
ĠC a
ĠBl og
Ġw ings
he alth
Ġspace craft
m other
Ġinvest ing
Â Ķ
Ġaccept ance
Ġ7 7
Ġtou ched
ĠR ice
Ġt une
Ġz omb
Ġto ile
ĠTe a
Ġiniti atives
ĠB uilding
Ġexch anges
Ġsc ary
oty pes
Ġp ays
ay ed
m ain
ĠD J
Ġide ological
Ġp ink
g t
or ient
Ġscen arios
idd ing
gu ard
Ġf illing
Ġmanufacture r
ĠBen jamin
ĠBe h
-- -
ro c
ĠSte in
] <|
ĠT ampa
ĠEv ans
ĠE lection
Ġser ial
âĦ ¢
Ġinf ring
Ġconst rain
ock er
Ġrot ation
lam m
ĠTe xt
Ġrespect ed
ĠMc M
w hen
r idge
ĠD raft
ĠK u
Ġpress ed
abb ing
Ġover d
Ġnon profit
Ġpe ers
b ecause
Ġacqu ire
Ġc ake
Ġoper ational
z o
Ġinc omp
Ġcrop s
Ġl anes
abet es
in itely
UT ERS
Ġcomple tion
ĠLa ure
Ġhigh way
Ġtreat ing
umb led
Ġprior ities
Ġsubsid ies
Ġexplos ive
ch i
Ġanim ated
Ġres igned
ec onom
Ġe ars
ortun ate
Ġdifficult ies
Ġsla very
ĠAr ctic
ust ers
ĠM obile
Ġis lands
au c
ĠCo hen
st ory
ĠÂ ©
Ġfree ly
w he
Ġch urches
ĠCh ance
Ġsh orter
ock ets
Ġfr ight
ow ell
Ġform ally
Ġappro ve
Ġreserv es
Ġt el
Ġdes ired
or ph
Ġqu otes
Ġrif le
ĠG a
Ġrespond ents
Ġparticip ated
ĠBr andon
Ġb ones
Ġdiscl osure
th ink
ĠR io
z b
ĠF igure
ĠR ail
m n
ĠA wards
Ġ19 30
Ġcrowd s
Ġhuman itarian
Ġworth y
Ġvolunte er
Ġs her
Ġmechan ical
ic ut
Ġtut orial
ab l
val id
Ġcle ver
ĠÃ Ĺ
Ġsec ured
Ġh ier
Ġjud icial
Ġatt ributed
Ġrum ors
Ġm amm
Ġcr ude
o ons
r ane
ch arge
ĠS aints
Ġcon j
Ñ ı
Ġmon etary
Ġdeliber ately
ĠCent ury
( );
ĠF ro
ict s
pro duct
Ġcult ures
Ġro cks
Ġanticip ated
A tt
is en
Ġin hib
Ġflex ible
erv ing
Ġeconom ies
ud ge
K ey
ĠMcCon nell
i ary
Ġinc ons
Ġb ass
ĠPro t
im ens
b art
ĠR aid
P ar
at ile
ĠK yle
Ġexp ed
Ġgr ateful
Ġelder ly
Ġconsequ ence
Ġj okes
s ized
Ġher itage
ĠD om
Ġpan ic
Ġteen ager
Ġdis par
ĠK l
Ġspread ing
cont rolled
Ġdisp os
Ġflex ibility
Ġinter rog
Ġto ken
Ġaff air
ĠSm all
Ġch ap
Ġaltern atives
ĠF arm
ĠT alk
ici ary
ĠB art
Wh ich
d rop
Ġn aked
Ġz ones
Ġdecl are
ĠCirc uit
gl as
ĠP ok
c rat
Ġvir al
Ġfin an
g i
Ġabs ent
ĠK erry
Ġattend ance
Ġt urb
ĠT erry
Ġadvant ages
az y
Ġtrig gered
B est
Ġbu zz
ĠAlbert a
iz ard
Ġtechn ically
Ġre aches
ĠS witzerland
ĠCh ap
Ġt ensions
Ġp osed
ĠB uck
Ġdetect ed
b les
ll ers
Ġinst inct
Ġkn ocked
Ġdesign ers
VER TIS
Ġdisturb ing
C urrent
Ġprev al
ĠE arly
ĠArt icle
ĠT reat
Ġpled ged
ĠT un
Ð ²
ĠPost s
s ky
or ig
ĠBrus sels
Ġinstru ments
A ust
val ue
Ġs ends
Ġsatisf ied
ĠI C
R T
Ġprocess or
Ġw rapped
il ateral
ĠM ov
are ttes
iv a
Ġexc itement
Ġf are
Ġgreen house
Ġshif ted
Ġequ ity
Ġbreak fast
Ġflu id
N orth
Ġl un
ne ver
Ġflo ating
Ġdo se
Ġremind ed
ĠKir k
Ġharm ful
ĠP uerto
inc inn
ĠPart ners
Ġtr apped
urn ed
Ġrep ly
Ġn ull
Ġwel comed
Ġapp eals
ĠCamp aign
ĠFrank lin
Ġhar vest
Ġres olved
Ġlegend ary
Ġsu itable
ĠAnt i
ation ally
Ġtransp arent
ĠI ss
b est
Ġmag ical
Ġbr ains
Ġref using
Ġ7 3
Ġfit ness
Ġavo ided
ĠT a
pr ising
Ġgr asp
Ġport fol
Ġident ifying
est one
ĠGr ay
Ġdecl aration
Ġannoun cing
Ġ7 4
Ġrec y
Ġab ol
it ably
Ġinn ings
P ress
f ox
Ġl ib
Ġh orm
ĠBuff alo
ĠLyn ch
Ġste ep
Ġprov incial
Ð ¼
ĠCommun ist
i ated
Ġcondem n
Ġha bits
ĠM D
oc ate
Ġrus hed
Ġimm igrant
found er
Ġmut ual
Ġem pire
ĠBar ry
Ġhat red
st ock
ĠM aine
e u
Ġhy brid
s ki
Ġassum ing
ra ham
Ġminor ities
Ġoptim istic
Ġhope ful
Ġindic ating
Ġedit ors
Ġexcess ive
Ġfro zen
ĠB ou
Ġwh ites
ĠPhil ip
Ġbel oved
Ġbrow s
incinn ati
Ġtempor arily
Ġconduct ing
N G
ĠV ery
ĠPr in
ver ning
se ud
ank ing
Ġpresum ably
Ġtrust ed
Ġdeploy ment
Ġimag ination
ed ed
Ġedit ing
Ġsupp ose
d ale
Ġear liest
ĠDou g
Ġass ured
ĠChrist ie
Ġst ocks
Ġtend ency
Ġimm ense
Ġpen et
ĠN atural
ĠM om
A V
Ġsh ar
ĠRog ers
e or
th an
N ever
Ġbar riers
ĠG PU
1 10
Ġf est
ĠP ed
Ġtour ists
p owered
qu ality
Ġdec iding
Ġhead line
Ġthrow s
âĢ¦ âĢ¦
ĠB ears
Ġcast ing
Th rough
Ġwor ship
ar ound
Ġcomp os
Ġr all
ĠTr udeau
Ġinfect ed
ĠJ ets
Ġm ixture
Ġve gan
Ġsocial ist
H aving
point s
keep er
Ġspark ed
ĠF un
roll er
Ġbutt ons
Ġg rip
Ġwa ited
Ġdam aging
Ġstruct ural
r ust
ĠOcc up
ĠA w
ĠWar riors
Ġgrab bed
iff erent
Ġdefend ers
ĠB und
Ġcolle ague
Ġd iver
Ġcolleg es
b age
not e
ĠJ e
Ġcrypt ocur
ot ton
Ġun ity
ĠM itt
Ġathlet ic
l ib
V ideo
Ġarm or
Ġre hab
s ign
Ġtr ash
per or
ĠH P
ig hed
m aster
ig ers
Ġplan ets
ĠO scar
ĠF ried
ol k
ors es
greg ation
Ġcart oon
Ġsc rap
ĠCh uck
ne red
au kee
ous ing
ĠBr ady
Ġl ake
ĠG arden
Ġparliament ary
Ġf ru
ĠJeff erson
Ġcompl iance
S ch
Ġsoc ieties
w al
pl an
ĠAl t
ĠLiber ty
Ġpurs uit
Ġdis g
L ink
b ig
Ġwh istle
per ial
Ġclick ing
en c
Ġa uction
al og
ĠGu ide
ĠSh an
Ġ7 8
Ġtradition ally
Ġatt itudes
on er
og g
F ree
Ġhum or
Ġsurviv ors
Ġapproach ing
Ġwid th
Ġn ick
Ġex ports
Ġres on
ĠColumb us
ĠTurn er
enn a
ĠWik ipedia
N EW
V al
Cl inton
ĠH ide
Ġlegisl ature
ĠIs lands
Ġbar rier
ĠKe ith
p ace
Ġch ampions
Ġdec ides
Ġpurch ases
ac ent
Ġm asc
be it
Ġh oney
B R
ĠB h
Ġpure ly
Ġlif ted
p ublic
Ġdet ain
af i
Ġess ence
Ġsec rets
ĠCor byn
ruct ive
Ġpurs uing
Ġobserv ation
Ġtext s
T om
t ics
c s
ĠU ntil
ĠHar vey
ĠMor ning
Ġin sect
Ġthere by
Ġf ont
Ġeth ical
Ġrec ount
Ġbl ess
Ġunder mine
G ame
force ment
Ġw ishes
Ġt ang
Ġur ge
st ore
Ġgrow s
on i
ĠD ub
arent s
AD VERTIS
ĠC rown
Ġoff set
Ġregul ators
Ġf t
T ION
IV E
Ġmeant ime
ĠY ahoo
ur red
Ġdon ated
ĠC orn
ĠCh o
Ġt ong
s chool
Ġl aser
m i
Ġeconom ists
Ġliber als
te es
Ġmet ab
Ġtreat y
w aukee
Ġ7 1
Ġremind er
B et
Ġa est
Ġsucceed ed
Ġn ons
Ġp ist
Ġsqu ee
Ġrom antic
Ġbott les
Ġpassion ate
ll o
ĠNor way
Ġ vel
Ġfl ip
S er
Ġhack ers
Ġfail ures
ĠJ u
re r
ĠWW E
p ath
g ree
ĠUn iverse
Ġemot ion
ĠW orks
d ig
Ġout er
icial s
ĠFant asy
ĠP ap
aren thood
ĠE V
Ġbreak down
ĠM oney
ĠE X
======== ========
Ġident ification
g ian
Ġfr action
ple x
ĠF DA
ĠMad ison
Ġt rop
back ed
ĠCam bridge
A nt
Ġadm its
E G
Ġsac rific
Ġdivor ce
Ġper mits
Ġsens or
Ġ0 1
ĠR aven
Ġdecre ased
own ers
ãģ ®
C NN
ĠD NC
Ġexec ute
r ained
Ġgener ous
Ġafter math
ĠP ur
ol o
ĠK arl
] :
Ġ( )
ĠE ss
es is
Ġwal let
Ġcomp ly
Ġsu ed
Ġdraw s
Ġ8 2
sec ond
Ġt at
Ġcomp aring
U M
Ġunf ortunate
S y
Ġarri ving
Ġfin ancing
Ġret reat
th a
vis or
is ers
Ġdis orders
Ġstr ain
ĠArk ansas
Ġvar iation
ĠMil itary
Ġsl ave
Ġenh anced
ĠWiki Leaks
ing ing
Ġwind s
Ġfeed ing
s ource
Ġfem ales
ĠE li
ĠRod rig
rop olitan
t ail
ĠG host
op es
Ġver dict
Ġhelicop ter
Ġaccount able
Ġconclud e
aw s
Ġun h
ĠGu y
iz able
ĠDep uty
ĠS M
ĠF isher
Ġcre ep
ĠRob in
ĠRE UTERS
D B
Ġche er
Ġtreat ments
Ġbatter ies
Ġrec onst
Ġund ers
ad vant
ĠJ ake
S outh
ĠMem orial
ĠNe il
m outh
ĠU RL
Ġpre ference
L Y
ĠConnect icut
Ġcontact s
Ġs illy
Ġlast ed
Ġmass es
ĠPol ish
ĠCommun ications
Ġcomp ound
Ġembed ded
Ġsequ el
Ġretail ers
Ġcorrespond ing
g iving
ĠM ission
Ġdestro ying
Ġlack ing
Ġd aughters
ig ma
ere r
ĠTy ler
Ġwond ered
d irect
Ġd ys
N Y
Ġcapital ist
f ive
Ġencoun tered
In te
Ġeconom ist
U E
Ñ ĭ
Ġre un
ĠR oom
Ġam pl
Ġvert ical
Ġlicens ed
v ation
F our
Ġwar fare
ĠI RS
ĠK rist
ĠTh under
ĠE mb
Ġfound ing
n ormal
ĠVenezuel a
Ġc ub
Ġag ing
Ġsm ugg
ĠMar ia
ir able
Ġh ill
Ġgif ts
Ġstatist ical
h ave
p op
Ġsl ower
Ġadv ances
ĠPakistan i
are st
Ġgrav ity
L O
Ġf ierce
ch ar
ĠConserv atives
Ġcare ers
Ġst abil
W ork
accept able
ĠSpe ed
Ġ198 3
ah l
Ġvill ages
elt a
Ġintent ions
ĠSc ar
Ġorganis ations
Ã© s
Ġsepar ation
ĠDown load
Us ing
Ġauthor ized
Ġking dom
ĠAd vent
Ġcount ing
ĠLuc as
h aul
Ġtr agic
Ġgo verning
Ġwarn ings
Ġdis pro
Ġins urg
Ġ Ï
ĠPlay ers
Ġ198 2
ĠStud ios
ĠS alt
Ġfar ms
ĠSus an
ĠMer kel
Ġcommission er
Ġdiagn osed
Ġtaxp ayer
ĠSpir it
im age
it bart
ut ical
Ġlobb ying
air y
Ġed ited
Ġdem ol
Ġal ph
Ġtransform ed
ĠC z
Ġclean ing
ĠH ub
Ġstre ak
Ġsuspic ion
F ig
Ġaw a
Ġele ph
ĠHoll and
Ġl ip
Ġc odes
Ġcontin uous
it ative
Ġb oring
ĠB os
ank a
ch a
ĠPri ze
ĠSci ences
Ġcons iders
Ġmill enn
crib ed
Ġscreen ing
Ġgam ers
ĠSt ars
ĠA th
Ġcont am
Ġdam ages
ol ine
ol er
ard less
Ġten ure
ĠK le
writ er
Ġf ib
ĠTh or
ĠN av
Ġde ce
ear chers
ĠZ h
ĠBr and
St art
Ġincl usion
Ġcl uster
Ġfun eral
Ġf ence
her ic
Ġa ired
Ġinst ruction
ank ed
Ġtraff icking
Ġfe ared
â ĪĴ
Ġdon ation
ĠP interest
uss ion
Ġwork place
Ġinv ite
f ly
ĠD anny
Ġcred ibility
r int
Ġte ens
Ġinst itutional
Ġmon sters
ĠD est
id ays
ĠM M
Ġcollaps ed
Ġ' '
ck er
Ġjust ified
S ign
A G
pp y
Ġhe nce
ham mad
o a
Ġn an
Ġhypot hesis
ip h
claim ed
ort heast
Ġsusp icious
Ġden ial
Ġorgan izing
ĠThe atre
Ġisol ation
ad ows
Ġgr ace
ue ller
ĠMorm on
Ġsp awn
ĠWith in
in ance
Ġste am
Ġboy friend
Ġcivil ization
Ġnovel s
Ġwrest ling
Ġur ging
. :
Ġinter ference
Ġdoub led
ĠIslam ist
ĠPet ers
Ã £
Ġth irty
h ome
Ġreal m
f il
Ġmag netic
. âĢľ
Ġr ib
Ġbelie ving
Ġexp end
Ġout right
Ġmed ian
Ġev angel
Ġsoon er
ĠInte rest
O rig
Ġind ict
Ġbenef icial
Ġbr anches
Ġdec ks
Ġcry ing
Ġcomp iled
oll ah
Ġrecru iting
Ġm ock
Ġeduc ated
Ġen ables
ool s
Ġle verage
Ġinv ented
Ġr hyth
C ap
Ġrus hing
Ġelimin ated
co ins
H ill
J an
O s
Ty pe
ur able
l ive
op ard
Ġspons ored
ace utical
D ec
Ġtra its
Ġunve iled
Ġbe ers
Ð ´
ĠCharl otte
ĠUb untu
M et
ĠStud io
ĠC incinnati
Ġtem plate
k h
Ġple aded
Ġroutine ly
ĠB ash
A h
Ġp izza
US A
Ġlab els
ADVERTIS EMENT
ĠT D
Ref erences
Ġeval uate
Ġd umb
St ud
Ġsolid arity
Ġag rees
Ġtem ple
ĠLt d
Ġbreat hing
Ġo x
Ġalbum s
au x
ĠK am
ĠFor mer
Whe ther
rodu ction
ĠBrad ley
ĠH ills
Ġdisc our
ĠPr inc
Ġlay out
ĠF el
Ġ8 8
Ġl au
re nder
fe ld
ĠGl ass
Ġult ra
Gener al
amp s
Ġshif ts
ĠT ar
Ġincent ive
ĠC ut
Ġdirect ory
ĠLe af
J ames
ĠC arson
st age
ĠO d
Ġentreprene urs
ĠB uy
ah a
ĠSol ar
ĠHind u
Ġv ibr
Ġmagn itude
M al
Ġjump ing
A lex
ast ically
ĠC ass
Is lam
Ġsmart phones
ĠO liver
Ġcompar able
Ġclimb ing
w idth
ĠIndones ia
Ġarrange ment
Ġwhe els
Ġpath s
Ġtermin al
ess ional
Ġpil ots
dri ven
Ġincent ives
Ġmidfield er
Ġd irt
U I
Ġspec ified
Ġexcept ions
t able
Ġadequ ate
Ġsn aps
Ġmon op
Ġcoc aine
Ġpsych ology
Ġpe oples
ord able
arth y
Ġc ents
Ġpre liminary
ĠSen ior
ĠL ED
Ġpart ial
ĠMc L
p ur
ĠA B
ĠVer izon
200 9
ĠVer mont
ĠP ence
Ġscream ing
Ġlyr ics
Ġvis a
ĠB JP
ill o
Ġtransl ated
u cc
Ġgl ob
Ġfirm ly
ir k
Ġch ains
un ct
Ġgen et
ĠTrib une
G od
Ġintrodu cing
ĠJ oy
Ġreg ards
Ġconnect ing
f old
Ġcounterpart s
Ġam end
Ġac res
ĠSt re
Ġb ust
Ġcr icket
>> >>
ĠG onz
Ġappeal ing
ĠFriend s
Ġme als
Ġun st
an ium
ĠF ab
Ġsc ul
Ġun rest
W A
ĠCount ry
Ġwild life
Ã© mon
b ull
M ake
1 20
Ġd ivers
ĠS ox
ĠN in
ĠT ob
Ġtrad itions
Ġthreat en
j ar
oc c
Ġp upp
Ġcreat ors
Â £
Ġ: :
Ġvac ation
Ġsens ors
Ġlike lihood
ĠBook s
Ġdetermin ation
Ġcomment ed
Ġan ime
Ġtr ace
Ġtri ple
Ġconv inc
umb ling
c end
Ġmatch ing
l ie
ĠProf ile
Ġcount ed
Ġ ðŁ
Ġbet ray
iv ic
erv ation
Ġprec ious
res a
ĠP AC
Ġto y
Ġpl aint
ri en
ĠBelg ium
Ã Ĺ
Ġmotor cy
Ġpar agraph
Ġtrans f
Ġshe er
ĠLeban on
ul ative
Ġinvest or
Ġkill s
Ġle agues
Ġendors ed
N ET
Ġaccur ately
Ġlicens ing
an te
ĠAr thur
Ġtw ist
Ġshif ting
Russ ia
ĠAM D
ias m
ant o
ĠN ixon
ian g
lud e
Ġfold er
ĠCow boys
Ġdis m
ĠB Y
W est
Ġdisappoint ing
ate ur
Ġavoid ing
Ġcomp assion
at on
i ots
Ġj ew
Ġgr ain
ack er
Ġ19 20
Ġprohib ited
Ġm erc
ur l
ĠBrazil ian
ĠG arc
ĠR osen
ugg ed
ĠArgent ina
Ġwork force
Ġaccount ing
U PDATE
ĠR ams
Ġsp are
Ġor g
Ġn it
Ġproceed ings
p se
ĠUnivers al
Ġf ict
ĠEb ola
Ġr iot
Ġlength y
Ġsl aves
ĠWe iss
ĠPolit ical
ri ving
Ġdub bed
pr ing
S M
Ġin mates
Ġment ally
Ġsh aped
Ġfundra ising
Ġover look
Ġcelebr ity
Ġtouchdown s
O ct
t or
oc aly
Ġ198 1
Ġind irect
Ġmar ine
Ġshe d
Ġwilling ness
Ġd ivid
ke es
ale y
agh d
H D
aff e
Ġint u
ĠBro s
Ġsevere ly
ul um
OS T
Ġgener ating
Ġestabl ishing
G reen
ĠN ex
if ting
Ġshould ers
Ġnegoti ate
Ġimplement ing
ĠSer ge
Ġp owder
Euro pe
Ġrenew ed
ĠM O
ĠFin ance
R ich
red ict
Ġconsum ed
g el
Ġswim ming
Ġb ite
Ġcreat ivity
ĠQ aeda
Ġrel ating
J ack
j e
v als
Ġse ctors
r ament
Ġfire f
l en
Ġcertific ate
ĠGl enn
ĠPh one
Å į
ak u
Ġassum ptions
ss on
ĠH unt
k g
Ġ Ø
ubl in
D ay
l ash
pe ople
Ġinteract ive
S ometimes
ĠT ell
ios ity
Ġobs erve
au er
Ġtrad em
S ON
ĠG ates
Ġaccomp any
ull ivan
Ġaver aged
Ġref lection
it ated
Ġh ij
ĠC her
RE AD
H igh
iox ide
Ġbra ve
u ced
Ġsa il
Ġroy al
ĠM ust
ĠE c
Ñ Į
Ġdis k
ĠAn im
Ġaffect ing
is ible
R ober
ĠL ane
d ays
out ube
u v
Ġfilm ing
Ġwor n
Ġblack s
at ers
T or
Ġfol k
Ch ris
ĠAr men
ul ent
Ġind igenous
Ġearthqu ake
qu al
Ġp ub
Ġsubsc ription
ĠB ond
Ġt ub
Ġconsult ant
Ġmount ed
Ġadapt ation
Ġclin ic
Ġ7 9
Ġdetect ion
g ro
ol utions
ĠA ve
ĠAn ne
Ġcompat ible
ro se
ĠMar co
ĠMil waukee
Ġrep ublic
ac ious
ĠCl ar
Ġy e
eng u
Ġrec alls
Ġ1 30
Ġf uels
olph ins
Ġcor ners
Ġspecial ist
B rit
Ġesc aped
ĠHigh way
Ġdi abetes
G erman
Ġ196 7
Ġwood en
ĠM ason
Ġadjust ed
Ġpredict ions
Ġtri umph
i ology
Ġimp ress
Ġsl ip
oot ing
Ġproblem atic
ĠC elt
Ġless er
Ġad mission
Ġfar ming
Ġliter ary
n ik
Ġtrans cript
âĸĪ âĸĪ
Ġmar ry
Ġm aker
Ġlaws uits
Ġaggress ion
ĠE dd
ĠBl ues
ĠC reek
Ġorig ins
ĠCol omb
ab ul
ĠH um
in os
Ġhe aling
Ġaud it
Ġcontin ent
ĠBull s
Ġtr ap
ĠGer mans
Ġ1 10
W H
Ġh oly
ĠDou glas
Ġdesc ript
Ġwhere ver
ett a
h is
Ġmusic ians
ec hes
ĠR C
cl osure
ĠGold man
iss a
Ġv on
S uper
ĠÐ ¿
ĠB B
Ġunder way
Ġmort ality
ĠRe ading
et ing
ne ath
bl og
Ġeval uation
orn s
Ġp ants
Ġab used
ĠGall ery
Ġvulner ability
Ġbankrupt cy
Ġsuper hero
Ġdel ays
ĠP arenthood
Ġres et
Ġle ather
Ġle af
W rit
Ġsh ore
Ġindepend ently
mun ition
Ġve to
oca ust
Ġsk illed
h al
Russ ian
ĠT ry
al ph
he w
Ġtim eline
ig nt
ĠSp ider
Mus lim
Ġle aks
ili ation
ĠV A
ĠS or
Ġinter cept
ect or
Ġresign ation
Ġin ch
Ġsu its
act ic
Ġw reck
Ġcy cling
ĠS W
ĠBron cos
Ġ18 0
Ġdark ness
Ġorgan ize
Ġsw ift
ĠM ort
ĠSuper man
ĠV i
Ġsher iff
ail and
as i
ĠBern ard
ather ine
ble m
ra pe
Ġafter wards
Ġres ume
Ġse iz
Ġsupport ive
lev ant
P N
es ity
mar ks
Ġshoot ings
Ġ] <|
ĠS omething
Ġin appropriate
ĠJ oh
Ġform ing
Ġ19 40
Ġlaugh ing
Ġbehavi ors
T unes
se lling
iss ance
Ġaltern ate
umb l
ĠI l
pe red
Ġun anim
ĠIs a
Ġtest ified
light s
Ġreb ell
Ġ196 8
Ġes p
Ġpract ically
ugg ing
ĠBud get
ĠS ad
ĠD M
row th
Ġbroad band
Ġcr ashed
Ġthorough ly
Ġins ists
Ġteen age
ĠL ock
Ġs ie
Ġb ind
Ġlabor atory
Ġdis advant
RE L
Ġun e
Ġpre st
ĠJohn ny
Ġdoct rine
Ġencry ption
ĠEx change
i op
ur u
Ġcons olid
Ġk ernel
bl ack
ĠVik ings
Ġloc ally
ĠAl f
Ġout break
Americ ans
Ġexha ust
ĠG ate
Ġoff shore
Ġsound ed
ke ys
Ġexp ose
Ġap ology
ĠQ B
C OM
Ġout fit
ĠRe ed
IT Y
Ġcolon ial
be an
ĠM ember
ri el
Ġautonom ous
Å ¡
Ġcorpor ation
Ġcost ly
dis play
Ġpro x
un s
Ġne at
Ġphotograp her
Ġgr ay
Ġanalys es
add y
Ġkill ings
C ity
ĠSp encer
f our
ill ery
Ġdemonst rations
ĠL iving
Ġchart s
Ġint end
ap y
Ġreason ing
Ġclass ical
.. ."
Ġdem on
Ġed ges
Ġmob il
ĠPalest ine
Ġattack er
ĠW R
epend ence
Ġveget ables
w er
Ġinf er
ĠSe ah
Ġmat ched
Ġemb assy
Ġpurch asing
Ġlect ure
Ġc m
lement ary
Ġhe d
ĠAg ree
Ġc ra
ID S
fund ed
Ġswit ched
ĠK och
pro te
M ike
Ġloc als
ĠF at
ĠWal ter
ĠD iam
Ġl ap
Ġr ated
pro of
Ġoblig ation
oc ity
ĠIn v
it is
Ġgar bage
ab ad
Ġstat ue
ell a
ĠSystem s
Ġstraight forward
2 000
Ġgod s
Ġelabor ate
Ġbus es
ĠL ess
u um
Ã£ o
Ġfl owers
Ġterrit ories
Ġ197 6
Ġportfol io
9 00
ĠB ased
ĠBet ween
cul es
ocument ed
Ġ10 1
Ġinf amous
Ġtra uma
Ġo h
ĠL oad
ĠMichel le
ĠM erc
Ġunf old
C R
as m
ĠS oul
Ġor che
B it
le m
Ġair line
) (
ion ed
op ing
oub ted
re ach
Ġh alt
ĠT ory
Ġpriv ately
az ed
cc a
z i
ignt y
ĠEm ploy
ĠM MA
Ġs isters
Ġdeal ers
Ġbes ides
ĠHom eland
Every one
Ġ ^
ĠA qu
ĠK ind
ph p
Ġpe pper
L S
S uch
Ġl oving
Ġf ame
ĠUn it
Ġfrust rating
Ġaccommod ate
ik ing
ĠMu hammad
Ġmed ication
Ġath lete
Ġfor ums
Ġ197 5
Ġb urg
ä ¸
Ġn uts
Ġatt ributes
A v
Ġpred omin
ĠH em
ĠV eter
ĠDen mark
As ked
Ġhe ter
ro lling
ĠB uild
ĠP ere
ĠCom ics
n ames
ĠH at
ĠG ear
Ġrank ings
Ġclos ure
ort ions
Ġlim iting
Ġmod es
pe lled
Ġ9 8
Ġstrik er
n esty
Ġsear ches
v iol
Ġs ink
ĠCal gary
Ġimag ined
b ul
Ġ8 1
Ġd ated
Ġwithdraw al
Ġe ighth
Ġqu ery
writ ing
ĠL uck
Ġeffect iveness
resp ons
Ġst ays
ir i
Ġobser vers
ĠN umber
ĠSub scribe
Ġint ake
Ġm ph
Ġsp ill
Ġd ioxide
oth y
Ġcar riers
ĠSh adow
ĠW ATCH
Ġenthus iasm
Ġgr at
p rom
Ġwh ilst
Ġcon vey
Ġunc ons
Ġmis leading
Ġ197 3
ĠRel ations
Ġpubl ishers
Ġmeasure ments
ĠMove ment
Ġsubstant ially
Ġnom inated
sh irt
ig a
ĠHar rison
Ġhistor ian
L D
ĠK el
Ġlist ing
ĠConf eder
Art icle
ah n
ĠG PS
Ġstr ings
ĠB uzz
Ġqual ities
Ġdelic ious
Â ®
Ġlock er
Ġrespons ibilities
Ġd angers
Ġexam ination
Ġhung ry
B ay
ĠBr un
Ġdiagn osis
Ġd ash
ĠS el
S ep
ov ic
ĠPal in
Ġple a
D oes
Ġh ood
Ġd rought
ic he
Ġex agger
n ational
ĠP T
ĠR ace
Ġw and
ro ots
ĠH ud
Ġdiscl ose
ĠTe h
ab el
ĠA CL
Ġrev ised
Ġrel ies
Ġst ab
Ġdiff er
Ġinev itably
S emit
Ġblood y
Ġmem orial
ĠJ ar
Ġvol umes
Ġc her
ĠR ico
Ġign oring
ĠUp date
min ation
Ġ8 4
Ġloyal ty
he lp
iz ont
Ġvari ations
Ġshut down
OR T
Ġmaintain s
ĠSoft ware
Ġent ries
ĠCarl os
Ġam munition
Ġ197 2
Look ing
Ġsymbol s
ĠBl air
ĠW oman
Ag ain
Ġp orts
art s
Ġyour s
A K
M I
com m
Ġ8 3
Ġfriends hip
ĠP as
ins ula
!! !
w ear
ol an
Ġp ile
Ġclass room
Ġal tered
p it
m ines
Ġdem ographic
Ġoccur ring
Ġc od
Ġphot ography
ĠVill age
ĠA my
Ġag greg
L ife
ĠD ennis
Ġtrib al
Ġqu ad
D ep
ING TON
Ġalgorith ms
osit ory
Ġh orses
Ġformer ly
ential s
Ġredu ces
Ġbrief ing
Ġfundament ally
Ġfulf ill
ĠPlan ned
Ġp seud
Ġinhab it
Ġrap ed
Ġcelebr ating
d el
h ole
Ġves sel
Ġhero in
ĠBrook s
#### ####
Ġdesper ately
art isan
Ġgall ery
Ġmet res
ĠWall ace
Ġsk ull
ĠD R
ĠL isa
Ġmid st
li ent
ĠTrans portation
IN E
Ġb ikes
ĠGM T
ĠJ a
pt s
Ġrein for
rep resent
Ġdisp ens
ĠG it
âĢ¦ âĢĿ
Ġde leted
we alth
Ġun limited
Ġ197 8
Ġsac red
ĠM i
Ġout door
Ġsh y
Ġarch ae
ĠH ockey
ab a
ft en
ĠSun ni
Ġnew est
Ġdecl ining
id ges
Ġbelong s
A c
Ġins ure
Ġpres cription
Ġspect acular
Ġf iber
R et
Ġexerc ises
Ġexpress ing
Ġju ice
AR D
P oint
Ġmod ules
Q aeda
d b
Ġaccount ability
ĠLiber als
Ġsche mes
ĠA ld
ĠRaid ers
ĠTer ror
let ter
Ġp ipe
Ġgar age
Ġgovern ance
Ġf lesh
al so
Ġt ribute
Ġconsum e
ur ring
Ind eed
Ġrub ber
IT H
h ner
ĠEd wards
oc ide
Ġpresident s
Ġlineback er
Ġw ip
aret te
it ial
ell ar
R ob
Ġarr anged
ĠM C
ĠP ick
Ġch ase
Ġsh apes
Ġfil med
p ic
RE S
Ġbed room
al in
put ed
App le
ĠPok Ã©mon
sc he
ĠShe l
Ġsol ved
Ġ8 6
ĠSeah awks
rem lin
Ġa ide
Ġpro c
ul u
Ġn odes
ag ging
Ġre ception
ĠM ueller
Ġconf using
Ġplay back
heim er
Ġbillion aire
uk i
Ġtw in
Ġaccident ally
ĠA gr
l ay
ĠCh apter
oubted ly
Ġb inding
pp o
ĠJenn ifer
ĠB us
C opyright
irt ual
Ġl oses
Ġr age
Ġperman ently
run ner
uls ion
M at
ĠW onder
Ġto ys
ap or
200 8
V A
Ġexhib ition
A ng
Ġun le
Ġme g
ĠSer ver
Ġsan ct
ĠCo ach
ĠSil icon
Ġmisc onduct
Ġspir its
ane ous
Ġ9 6
Ġw ounds
Ġmed al
Ġbo ats
Ġth umb
s is
work ing
ch air
ĠL ost
Ġfresh man
ĠS i
ĠF ly
Ġvig il
Ġl uc
Ġpre jud
Ġsell s
ĠF ame
Ġconsider ably
ĠPhot ograph
Ġdemonst rates
ĠD ublin
ĠR ah
Ġg rey
se mble
Ġlast ing
Ġsh ipped
Ġstrict ly
Ġman ages
Ġchem istry
on ge
Ġregul ate
Ġfin als
m el
re ated
ĠSh ar
Ġ8 7
Ġmilit ant
Ġlabel ed
C r
de gree
Ġfin es
Ġtoler ance
Ġt ier
ĠN PR
ĠTr uth
Ġskept ical
Ph ot
Ġexcept ional
Ġsp ite
Ġfan cy
ĠMalays ia
M er
r ong
S an
ie val
Ġlin ear
ĠUr ban
G R
Ġstre ams
ung le
Pro f
ĠCh ile
ĠFor um
ĠZ ion
ĠAut o
Ġpuzz le
ĠSt ring
Ġreason ably
ĠR oth
Ġtack les
Ġcance lled
ĠJ uan
Ġden ying
et e
ard ing
Ġpit cher
Ġ9 7
ĠD od
A ug
M icro
Ġprocess ed
ĠG and
Ġlove ly
ĠHer o
sp ace
A uthor
ĠR at
ĠV iol
pro v
Ġm as
Ġmid night
Ġret rie
ĠRes ources
ĠOper ation
th irds
S l
Ġsp ends
Ġrest ored
man uel
Ġorganiz ers
Ġmon ument
p x
Ġun acceptable
form ing
Ġsub mar
ĠY ears
Ġtun ed
Ġgenuine ly
Ġqu o
Ġteen agers
olute ly
Ġbe ll
ĠPal ace
ĠR ush
Ġfacilit ate
Ġm ature
ps y
ĠC ond
ĠF ile
ĠS elf
Ġf oul
ĠRepresent atives
Ġd ancing
th s
Ġrel ate
bor ough
Ġout lined
ĠT ill
ĠBill y
M em
Ġad vers
Ġautom ated
Ġoblig ations
Ġsexual ity
Ġdiv isions
Ġext ends
........ ........
Ġtour ism
Ġsurve ys
ĠMcC arthy
ret ion
Ġle ap
Ġi Tunes
ĠTh ailand
ai ro
E v
Ġsuccess or
E arly
B ER
ow een
ĠP ad
ĠCh arg
id o
ĠBenn ett
ĠSh ield
Ġspot light
ĠM ack
ĠÂ ĵ
ĠAr n
T ur
Ġanonym ity
in ery
Ġin ability
Ġab oard
Ġdefin ing
ĠN DP
w ick
ĠZ ero
ĠRich mond
Ġrecommend ation
Ġunder neath
ĠIn valid
Ġdr illing
ri pp
ĠSp urs
Î ±
Ġgener ic
ex p
ist ically
Ġsubject ed
Ġhear ings
Ġbattle field
Ġp ound
Ġinc umb
Ġsn ap
ES S
clus ion
ĠCz ech
ĠGriff in
ĠG ay
Ġse ct
Ġspe eches
Ġconsist ency
ĠOb viously
Ġvict ories
ĠBet ter
ĠBang l
ĠRet urn
head ed
ĠCh amber
ĠG B
Ġp iv
ĠH ope
ai res
S ur
Ġcontract ors
ĠChron icle
Ġcor rid
ĠSe ven
yn c
Ġl ined
Ġris en
cl osed
Ġgu ilt
m os
rane an
Ġtong ue
Ġover haul
Ġinc oming
ĠCom merce
P H
m ile
ant i
Ġad verse
ĠBre itbart
ĠM aj
ed ge
Ġpar ade
Ġprem iere
S O
Ġsal aries
ĠRec ord
ĠEl sa
Ġcon cess
Ġtrave lling
ĠS ay
ĠBe yond
ĠL LC
Ġste pping
ĠSoc cer
Ġname ly
Ġembr aced
ou st
Ġfrank ly
w rite
Ġdisc on
Ġrender ing
hold er
ĠSo on
âĢĿ âĢĶ
Ġtransl ate
ĠF itz
ĠTit le
Ġconfident ial
Ġm elt
ĠAcc ount
Ġpl ates
Ġ0 2
g s
Ġexhib it
Ġconfront ed
Ġ196 9
ĠQ atar
Ġb inary
Ġd ive
Ġ ì
ic ers
Ġanaly zed
b ad
Ġtact ical
Ġdef ic
Ġart if
{ \
bs ite
Ġl iability
ĠWork ers
ãĢ Ĥ
Ġem power
ĠPack ers
ĠHur ricane
ĠG P
ĠElect ric
ĠG as
g reen
in ate
Ġbureau crat
Down load
Ġstro ke
ĠP un
ĠSur vey
c ill
Ġred e
Ġun ited
Ġfunction ing
te am
ag ged
Ġg ard
ĠC ape
ier ra
os i
Ġd ot
acc ur
Ġarri ves
Ġlic enses
Ġr ings
ĠCub an
Ġpart isan
H ouse
Ġdon ate
ĠM all
k ill
Ġm ate
Ġback lash
ĠBry ant
Ġvend ors
ĠM VP
Ġdoub ts
le tt
uster ity
ĠH alf
Ġsteal ing
Ġsign atures
Ġc argo
Ġv ib
Ġfel ony
ĠI v
ling ton
m or
ĠN A
ĠG reens
Ġgrocer y
ĠS F
Ġcloud s
ĠML B
ming ham
Ġj ack
Ġpublic ations
Ġcasual ties
Ġ9 11
Ġaut ism
Ġp ale
Ġnegoti ating
Ġcoast al
ĠNe ed
IF A
ĠR AM
ĠStud y
Ġ9 3
Ġobject ives
Ġment ions
ĠPr int
Ġret ro
Ġgl ory
d isc
Ġsovere ignty
Ġelectron ics
Ġdefend ants
IG HT
ang o
= âĢĿ
ĠH BO
or ity
Ġ> >
Ġprem ier
ĠMet hod
Ġind ef
Ġliber tarian
Ġint ens
ĠTit an
ĠS A
ĠSh ah
Fr ank
ĠIce land
Ġarrange ments
ĠReg ional
ick ets
M C
Ġves sels
Ġart ic
c ry
Ġn od
ĠK ill
Ġhon our
ut ing
Ġac ute
Ġfl ows
ĠDef ence
Ġscul pt
ĠS ent
Ġdiscl osed
Ġsport ing
Ġlack s
Ġfort un
ocrat s
C le
ron es
Ġpre season
Ġnecess ity
ĠAL L
ĠS earch
ul ator
Ġprop ri
B E
G S
Ġ{ \
EC T
ĠBrother s
f ar
T im
ĠB obby
Ġu seless
Ġout let
Ġpret end
Ġ197 7
Ġcl arity
Ġhe al
Ġconvinc ing
ent ions
Ġlegisl ators
V R
Ġim pe
ĠT ib
Ġcatch ing
ĠBarb ara
orient ed
Ġdign ity
there um
Ġdetermin ing
Ġutter ly
Ġprotect ive
ĠL E
az ines
Ġtw elve
Ġc ute
u ity
Ġstimul us
? !
pl ess
Ġlegit im
y d
Ġr am
Ġcharacter ized
Ġbl own
Ġd ense
ter ior
Ġmarket place
ĠAtt ack
Ġs lic
Ġt ube
Ġspons ors
Ġtheoret ical
ĠNob ody
Ġl ighter
Ġhas h
ĠR ic
S and
Ġspe lls
Ġc ure
raw l
Ġhun ger
ĠBe ast
Post ed
ĠSim ilarly
Ġelect ro
Ġflood ing
Ġadap ted
ĠEvent ually
om atic
ĠPhill ips
us hing
ĠBrown s
z h
E vent
Cl ass
W ind
uff icient
or us
Ġ9 2
Ġgen ius
Ġprev ention
aug hed
f eed
ĠFr an
ĠC OM
F R
ĠSh i
Ġse am
ĠCol on
O O
k ens
Ġswitch ing
W ashington
Ġevolution ary
Ġm all
Ġun ch
Ġfore sts
ĠBut ler
ĠB P
ak y
AN T
lick r
const itutional
ĠF ast
Ġen abling
Ġmus cles
Ġ Ñģ
um ns
ĠT igers
Ġglass es
Ġcomple ting
Ä į
Ġo d
ĠM IT
Ġqu arters
Ġ197 4
pl ane
Ġsens itivity
Ġantib iot
ĠN ag
c ost
ĠBry an
ĠM ode
atic an
Ġf art
ĠAl tern
Ġ ),
Ä ĩ
Ġca res
cast le
Ġw are
ĠJ av
Ġbarrel s
ser ver
ant ing
C are
Ġachie ving
ĠSand y
Ġmal ware
Ġread ily
Ġexplo itation
F T
Ġmist aken
E r
ĠB R
Ġtable ts
Ġad min
ĠP L
Ġaffili ate
em ail
Ġmet a
ĠCl ay
Ġmurd ers
b uilding
Ġco at
om o
Ġha ul
Ġw it
uten ant
) |
ĠL ang
ĠCast le
Ġastron aut
ĠB ishop
ĠN E
Ġequ ation
Ġlist ened
ĠOb ject
ĠSt op
Ġjurisd iction
out ed
Ġdeb ris
ĠI b
Ġdr ill
Ġsubscrib ers
a ired
Ġreb uild
A FP
Ġh ind
cont rol
ne x
' '
ĠPant hers
ĠNever theless
vel t
Ġrefere n
Ġtrib e
ott om
Ġhold ers
IC K
ĠPlan et
Ġspons or
Ġl aughed
ĠO wn
min ed
l ast
Ġext ending
Ġspec ify
Ġsubscrib ing
ĠA x
ĠIn side
Ġred ist
Ġc ab
Ġbip artisan
Ġcool ing
Ġf ond
Ġpredec essor
ĠTo o
Ġfr ames
Ġins ights
Ġsomet ime
M obile
col or
ĠArab ic
II I
Ġcan cel
ri ages
Ġref usal
Ġ197 1
pt ic
ĠEd ge
Ġbe aring
Ġr ats
Ġcous in
ĠIm perial
am as
Ġfinan cially
Ġroll s
Ġup side
Ġswe ep
Ġsynd rome
Ġend e
I X
Ġnot orious
Ġnight mare
Ġpers ist
Ġp airs
Ġfire arm
Ġdu o
c m
ĠPr im
ĠJam ie
Ġe leg
Ġswe eping
Ġbusiness man
Ġpro port
ĠOr thodox
b ot
ul k
r one
amp ed
ĠLe v
Ġsur pass
Ġcred ible
ĠS O
Ġarbit rary
Ġa ston
ĠAust ria
ĠW ii
ĠB ird
Ġattack ers
ĠC u
Ġ3 50
Ġc u
Ġhard est
ĠB ed
ĠInd ex
fr ame
Con f
Ġmob ility
Ġm igr
ĠD awn
Ġ14 0
Ġre ct
d ie
Ġexpect ation
res pect
Ġassoci ations
re amed
Ġmem or
ĠSp ot
Ġneur ons
ĠDou ble
Ġglob ally
ash i
Ġor al
Ġdomin ate
Ġreview ing
pro du
U K
Ġhydro gen
P ut
Ġnew er
am y
t ic
Ġviol ating
ĠNew ton
b uild
ĠK or
Ġportray ed
ASH INGTON
Ġsp at
Ġchar ter
Ġtre asure
Ġb io
Ġl ately
ĠTO DAY
Ġtour ist
Ġter rain
Ġtr icks
Ġsepar ately
D irect
Ġinf lamm
agon ist
Ġendorse ment
ĠI BM
Ġdeter ior
Ġv owed
Ġtroub led
Ġre iter
osp el
Ġrevel ation
ĠSw ift
V ID
Ä ±
ĠD aw
ĠR achel
Ġdesc end
Ġdis ability
ĠSud an
G reat
Ġa ides
n ut
Ġapolog ize
Ġnation ally
ĠB aghd
Ġpos es
Ġnav igate
Ġbi ology
in ces
Ġrel ied
ĠR ud
ĠJul ian
ĠR O
B uy
im port
âĢĶâĢĶâĢĶâĢĶ âĢĶâĢĶâĢĶâĢĶ
ĠG R
iz ards
ĠQu inn
t w
ĠM ul
os ures
Ġsettle ments
Ġwas h
ĠMar cus
Ġp ockets
am o
ĠWell s
Ġart istic
ĠÐ ²
ĠTeh ran
h um
at ched
P ublic
Ġb atch
ĠSt ra
Ġcommit ting
Ġc ache
Ġg au
ar cer
umbl r
p df
th ree
Ġtourn aments
ĠLaur a
ĠB order
Ġphys ician
Ġelev ated
Ġst raw
ith ub
Ġpers istent
Ġbl end
sy stem
ĠContin ued
f in
Ġa qu
Ġprov ing
Ġshort age
U P
Ġdecl aring
ĠC SS
es pecially
Ġinc on
Ġpr ay
ĠGl obe
ade qu
Ġident ities
H ub
AS T
ian ces
ah o
Ġinter im
Ġvill ain
ĠF ish
St ring
Ġst ark
ĠBre ak
ar u
un ks
Ġa ster
Ġles bian
Ġinv isible
ĠMach ine
Ġdistingu ish
ĠC ab
Ġviol ate
t alk
Ġgal axy
Ġart work
ĠB L
ĠAss istant
Ġgrad uated
s im
Ġvar ied
Ġexclud ed
V er
ĠD ue
Ġal iens
in ho
Ġtem pt
Ġover time
Ġd rown
Ġdefin itive
Ġover see
ĠLeg end
T er
inf o
Ġinter section
Ġ8 9
Ġpron ounced
Ġg i
aus ible
ĠCle an
M ac
Americ a
ul ates
Ġrun ner
ĠN ancy
Ġkick ing
ĠN at
Ġanal og
Ġrel ent
ĠT her
Ġacc using
Ġassemb led
b one
ĠCl ose
IM E
Ġinflu ences
ro gen
ĠCard inals
Ġm ush
ĠE rd
Ġren ov
Ġpref erences
ĠNex us
Ġpre y
Ġsub way
Ġob esity
Ġrevel ations
N ational
U ntil
ĠTra vel
Ġal umin
ĠJ ong
ĠLad en
uc le
Ã¼ r
Ġfort une
ernand ez
Ġlay ing
Ġbul lets
" ;
S ports
Ġhel met
mont on
Ġwar r
ĠW ade
Ġbes ide
Ġp sy
Ġd read
ĠSe lect
C ong
D et
ĠNe ither
Ġse al
Ġp p
Ġrisk y
Ġuns uccess
ĠT ru
Ġtrib es
Ġvary ing
Ġhand y
Ġimpl ies
ine z
Ġsh ower
ĠAff ordable
Ġtoile t
Ġrent al
ĠD ra
Ġve t
it utes
ĠM itch
ose velt
rament o
ĠB iden
Ġban ner
Ġkilomet ers
Ġre lying
ĠB annon
ĠDr ag
ĠH orn
Ġne ural
Ġbreak through
ĠL uther
Ġfavor able
in is
ĠWh atever
A f
s cience
ĠMem bers
Ġp etro
alth ough
Ġauthent ic
y ang
he tt
Ġn urse
Ġtax i
Ġdiss ent
ĠFl ight
ĠP il
ĠClass ic
ĠT arget
ĠC M
ĠC ou
S R
Ġanaly ze
Ġrecip es
L ong
Ġreluct ant
Ġaim ing
ĠP ast
Ġk icks
ĠJo ined
l on
Ġcred ited
Ġpat ience
Ġins pire
G old
Ġur gent
Ġassass ination
Ġfam ously
th ird
f ull
L aw
In f
rit ical
Ġun aware
Ġback ers
Ġp up
ĠJ obs
rib ly
ĠCol lect
B ill
ĠW ire
Ġcl ause
Ġprof itable
econom ic
ĠH R
l arg
Ġvolunt ary
Ġfact ories
Ġsubst itute
Ġca ut
Ġmass acre
Ġmeas uring
Ch ar
Ġrecre ational
Pl ay
Ġsum mar
omet own
as ma
ac hers
CL A
Ġpr ayers
off icial
Ġexpress ions
Ġtrick y
Ġmin im
B ased
ĠC BC
ĠP oly
lic ation
br aska
Ġmag azines
Ġtext ure
Ġcy cles
Ġp uck
Ġpass ive
Ġdisc ourse
app ro
ĠYan kees
ĠV atican
ĠAr c
Ġp ause
Ġsoc ially
Ġal beit
e very
ĠGarc ia
Ġb out
ul in
Ġund oubtedly
Ġf isher
ĠHispan ic
ĠK remlin
Ġstar ring
ĠE ither
ĠW inn
so ever
Ġatt ribute
ob i
om i
ur as
ĠL em
Ġmos que
RE E
im ated
Ġrece ivers
Ġcrew s
Ġst icks
Ġhe ated
Ġprov inces
O pen
ĠFour th
Ġwor ries
ĠM ans
ĠM es
ĠAgr icult
Ġman eu
Ġcontract or
Ġdefend ant
ĠC row
Ġintention ally
us ions
Ġload ing
m us
Ġse min
Ġpreced ent
Ġmem orable
ĠPet e
Ġ ic
ĠG rey
Ġf oster
ĠHol ocaust
ĠPolit ics
Ġbroad ly
er ting
Ġfit ting
Ġour s
Ġsatisf action
he nd
atern al
Ġhy d
J apan
ĠPro test
Ġblog s
Ġdynam ics
ĠL ot
ĠInvest ig
an ne
ful ness
ĠH ait
Ġl iv
Ġfac ial
Ġbuff er
he astern
Ġst er
ĠNob el
de velop
ĠDe al
Ġsum mon
p ound
ĠC our
ĠN EW
Ġsupp lied
Ġval ued
ĠAgree ment
Ġmulti player
Ġ9 4
ĠPh D
Ġiniti ated
ĠSn ap
ĠM B
Ġstr anger
Ġattract ion
Ġ9 1
With out
ĠAl ong
ĠHall oween
ĠN ep
Can ada
ĠAl ice
ant le
ort ing
Ġdisappoint ment
F ox
ĠSam uel
Ġteam mate
ĠÐ ½
Ġstick ing
ĠCh and
ĠC hen
ĠWork ing
ĠTra il
ĠA bs
REL ATED
Ġne o
Ġprov es
ĠEnter prise
Ġsear ched
Ġmed i
K K
head s
Ġmart ial
ĠBir mingham
Ġsw ept
Ġinc omes
00 1
Ġp ars
Ġ q
all ow
ĠP ath
ĠGirl s
ĠNash ville
Ġun lock
Ġepid emic
Ġfict ional
Ġdim ensions
Ġentreprene ur
Ġmis under
b b
ĠRe form
ĠChief s
ell ing
Ġbroad c
ĠFer r
Ġm aj
ĠEngine ering
ĠBrew ing
C P
ost al
te lling
Ġgrand father
ĠF inn
G N
c ulation
ĠIsrael is
Ġparam eter
Ġinterpre ted
F ire
Ã¡ n
Ġtheat ers
ĠE le
ain ted
Ġevent ual
ah an
Ġachieve ments
Ñ ĩ
Ġmod ify
am ation
Ġdomin ance
Ġflaw s
ĠCom puter
em ale
Ġyoung est
ĠG A
In tern
Ġcontribut or
Ġtr ump
Ġworry ing
terror ism
roph ic
ĠS ach
Ġint act
ĠD ays
Ġpo le
ĠS pect
ir med
Ġw ard
Ġconven ience
t ake
Ġar ise
Ġsub mission
Ġarch ive
Ġdef ines
ĠK ath
T ex
M arch
Ġpred iction
Ġfin ale
ced es
Ġsur render
Ġtact ic
ĠAl b
Ġobst acles
Ġmac ro
ĠY e
ĠJ oint
in formation
Ġdisc ont
op ular
Ġphilosoph ical
ĠBase ball
v ised
cul us
m und
ĠF L
am bers
Ġbicy cle
ĠAl most
Ġen roll
Ġinf lic
Ġpr isons
un ique
Ġmal icious
Ġban ning
ĠB ear
Un like
L ater
z illa
Ġreven ge
ange red
ĠC ant
Ġnav al
int age
Ġwhat soever
ov ich
ĠK ate
ĠS old
Ġsk ip
Ġnational ist
Ġn er
ment ation
Ġentertain ing
Ġc yn
ĠDiam ond
Ġdiv ine
l ation
Ġcorrel ation
ĠK az
Ġbas eline
Ġdu pl
Ġn est
Ġover r
ĠN HS
ĠL an
Ġneighbour hood
Ġnetwork ing
Ġshe ets
as a
Ġthe or
Ġneutral ity
Ġg aps
sc ript
Ġignor ance
Ġan k
c d
Ġtw itter
ĠF an
Ġorgan ised
Ġinter medi
Ġtouch ing
S H
Ġconcent rated
Rem ember
\ \
Ġregul ated
Ġconsult ing
ĠR aw
Ġassault ed
on ies
ĠPortug al
Ġopp ression
ve t
Ġle thal
c lick
ĠK os
Ġcur s
ĠBe er
the m
Ġr ab
umb ai
Ġev olve
ĠAn imal
Ġhor izont
Ġeuro s
Ġinvent ory
rav is
******** ********
Ġsa ves
Ġo st
Ġc um
h u
le ased
ĠC ox
ast rous
Ġris es
ĠPict ures
Ġdesign ing
Ġconfront ation
ĠHol mes
k n
se arch
Ġn asty
Ġsk i
gener ation
Cal if
Ġdr ain
U lt
Ġimport s
ere k
J on
Ġtrans mit
ĠMat ter
Ġto oth
sp oken
Ġres ur
ĠMot ors
ĠRo osevelt
Ġquant ity
ĠCar ib
Ġover ly
Ġcrowd ed
ĠG ive
Ġadminist rators
ĠM E
ĠUS D
ĠW ol
Ġmer it
Ġscript s
irl ines
us cript
Ġinv itation
ĠSur v
ĠL G
igh te
Ġbr ick
ne apolis
Ġoff enders
Ġh ated
Ġdon or
ĠFire fox
ch ief
as ures
Ġse aled
Ġvar iant
Ġcommit ments
im eter
g rav
ĠHug hes
Over all
P erson
Ġb ay
ĠR ing
col m
ĠR PG
ĠPD F
Ġfix es
Ġ196 5
li ers
Ġremem bers
Ġw rist
Ġp add
ĠAngel a
Ġcost ume
ĠEp isode
P ort
are z
Ġ196 4
Ġnav igation
ĠN athan
Â ©
gg le
ed uc
ĠRodrig uez
Ġcomprom ised
Ġinc arcer
ĠPal mer
ĠFin land
s qu
Ġstar ters
ic ating
Ġfree ze
Ġc ord
ide os
Ġprec ision
Ġreject ion
Ġg re
Ġmathemat ical
sh ow
Ġcur rencies
ov o
Ġflaw ed
________________ ________________
Ġt ire
Ġcomm em
Ġbelong ing
est a
ĠOb serv
Ġn arc
our ge
ilit ary
Ġover th
ĠOccup y
anc ies
ĠD ise
Ġcl ash
Ġj am
Ġembarrass ing
Ġpitch ing
ĠSh aw
ok o
Ġrob bery
se en
Ġhol idays
h ots
Ġpro xy
Ġun cle
us hed
ĠBroad way
E xt
Ġab uses
Ġquestion able
ĠF oster
Ġapp et
Ġcur ric
ore n
ment ioned
bel iev
Ġpresent ing
Ġble w
Ġn erve
ĠQueens land
Ġupgr ades
Ġconstrain ts
Ġdispro portion
Ġen v
ĠS ullivan
Ġm im
Ġad oles
ĠIndian apolis
S um
ri ved
Sm ith
ĠC op
ĠCh ase
Ġrend ered
Ġinfect ions
Ġstead ily
ĠS ens
ĠBoe ing
Ġremind s
ĠDun can
Ġunc overed
Ġund ere
Ġpharm aceutical
Ġbase ment
Ġtradem ark
Ġb ats
ĠRod gers
Ġcont ing
Ġball ots
' :
ĠE RA
Ke ep
ĠP ubl
ind ex
less ness
ĠC ris
Ġa pt
R eal
W ASHINGTON
Ġdig it
ĠMont ana
Ġdist ribute
Ġopt ed
as ive
OM E
Ġbeh ave
Ġout look
i per
orig inal
Ġst iff
Ã º
rit ies
Ġmanufact ured
Ġins ert
ect ed
Ġboot s
Ġat e
Ġgrand mother
0000 0000
ĠR acing
Ġan throp
C ount
ĠMoh ammed
min ster
and o
Ġcomple ment
Ġpack s
Ġback wards
Ġtu ition
Ġa usterity
k now
Ġsu ited
ĠK ash
un ge
Ġper ce
st ick
Ġevangel ical
ic ides
Ġs ab
Ġcontain ers
Ġmake up
Ġlink ing
Ġnons ense
Ġprison er
av i
Ġdownload ed
ĠL l
y our
Ġoff ence
ĠC abinet
Ġextrem ist
ĠAth let
Ġthro at
co very
Ġch ron
Ġinj ust
do ing
Ġint imate
c all
m em
Ġshar ply
ĠA ven
Ġprote ins
p ol
Ġcred entials
ĠIn iti
Ġcorrespond ent
r aged
Ġl as
Ġhot els
Sc ott
Ġsecret ly
ew s
j u
Ġcol umns
Ġtrack ed
Ġpress ures
pl ant
Ġinv alid
OR K
Ġ Ù
el er
Ġland l
Ġsatell ites
ĠAss ange
Ġoption al
Ġhack ed
Ġbud gets
ĠQu ick
Ġqual ifying
ĠBaghd ad
G en
Ġto kens
Ġcomp ounds
ĠP ink
Ġb er
ãģ Ħ
Ġr ivers
Hill ary
Ġpun ished
Ġwho ever
s ocial
Ġemot ionally
Ġpl ag
Ġsurv iving
Aust ral
Ġinject ion
Ġsol ving
Ġc ups
iction ary
Ġres id
ĠCl in
Ġham mer
child ren
Ġelimin ating
S am
ĠNiger ia
Ġcat tle
Ġaggress ively
ĠChance llor
pri v
Ġo ven
Ġhor izon
Ġmanip ulation
Ġswe at
Ġlaun ches
Ġlif ting
esc ope
M o
Ġde lete
E mail
et ition
ĠM ine
ĠS ierra
ĠBr ig
ibl ical
ĠG ot
Ġmet ric
Ġbo oth
Ġsubur ban
se in
ĠS em
ĠP H
com pass
ĠStud ents
ĠAle ppo
ĠCom b
J une
D I
ĠC ell
ĠJes se
ĠP red
ĠPet erson
ĠAlp ha
Ġhor rific
ĠBrother hood
pr ises
Ġnice ly
Ġextrem ists
l ocal
Ġconclud es
Ġbrew ery
G L
Ġamb ul
er als
Ġmess aging
N one
Ġh ilar
ĠSac ramento
ĠCitiz ens
Ġpublic ity
ĠPresident ial
ĠF IFA
Ġjo ins
ere n
g om
Ġbr ush
Ġrecon c
ĠH erald
f an
Ġcompl aining
ĠZ immer
Ġprev ents
Ġvac uum
ĠBangl adesh
zb ollah
] )
Ġprem ise
ĠD A
Ġr ides
ens on
at isf
l iter
ab i
v or
Up dated
Ġ Å
ag ain
ĠB elt
Ġk g
ĠHe y
Ġadvis ers
Ġhaz ard
ip se
Ġjust ification
ĠCat al
Ġunder go
Ġanch or
ĠS ave
Ġtrad es
ĠSh in
ed e
ĠLeg al
In vest
Ġflo at
Ġdest ructive
F ull
Ġsle e
leg al
.âĢĻ âĢĿ
Ġo un
ĠA round
Ġneighb oring
oot s
ĠHer itage
Ġent ers
ĠM I
ĠM ong
ĠAn aly
Ġpict ured
Ġtransf ers
ĠCh ip
Ġref und
Ġvirt ue
Ġtroub ling
ĠCr iminal
ĠCol in
Ġfe as
iter ranean
iz ers
Ġacc idents
ĠOver all
Ġcor ps
Ġo k
Ġsovere ign
Ġpur ple
Ġannoy ing
w ould
H el
i ological
ertain ly
Ġrecord ings
Ġtroub les
Ġnon etheless
Ġplug in
Ġun constitutional
ĠEd monton
Ġle ase
Ġ19 45
Ġam ateur
Ġby pass
sp ons
atern ity
ĠJess ica
worth y
Ġdis astrous
Ġir rit
p ay
ie ve
ain er
Ġcommission ed
et a
clus ive
ĠMS NBC
U se
Ġdim ension
T able
g reat
Ġg reed
Ġcommit tees
Ġcompan ion
ĠH TC
Be ing
Ġl iver
ĠCost a
Ġte aches
ĠC av
ĠC T
Ġ0 3
ĠRe ally
Ġden ies
Ġp ad
Ġp el
ĠAll ah
per t
ĠZ one
Ġsince re
Ġj acket
H ead
um atic
ĠL ic
ĠM urd
ur ious
ĠPict ure
ĠPot ter
Ġin accur
N AS
ĠAnt ar
ĠD rew
Ġexam ining
Ob viously
oc y
Ġmed itation
Ġcens orship
ro d
if iers
ĠR ivers
if iable
ĠBre nd
eal ous
Ġlegal ization
ĠG round
Ġprom in
Ġin adequ
ĠAh med
Ġdeli vers
ĠAct iv
ĠO z
Ġimpl icit
ĠFO X
Ġop io
ĠInc re
M ax
ĠK an
Ġrandom ly
Ġcalcul ate
ia z
ĠF ac
ĠChall enge
Ġpriv at
Ġboss es
Ġintern ationally
ĠBar n
ĠR af
Ġexpl ored
Ġforeign ers
Ġunemploy ed
Ġh ike
op ic
Ġhand gun
Ġgrad uates
T w
o ven
oun cing
vent ions
ĠE arlier
Ġintegr ate
ur ry
Ġl azy
ĠD ri
K ing
ĠÂ °
Ġcat ches
m ill
Ġcl ashes
ĠNe braska
if ully
ĠAr med
Ġb ans
ĠA irlines
ĠS L
play ing
at hetic
Ġfor k
d esc
ĠN ar
ĠIm agine
Ġdisp utes
ĠP in
Ġd war
ific ant
s i
he ll
ĠO P
yl an
Ġirre levant
augh s
[ /
ĠL ives
ĠTele graph
ĠB ald
ass es
âĢ¢ âĢ¢
Ġaccord ance
F I
E U
b oth
Ġretain ed
Ġdef enses
Ġcig arettes
Ġadj acent
ophob ia
av ailable
r us
h ad
Ġcomp act
uff y
Ġland mark
ĠClar ke
p os
ust ain
Ġencour ages
B o
M uch
min ent
ver ted
l ength
Ġ16 0
J im
ĠPrin cess
r ams
ĠEv il
Ġnin th
uff ed
Ġch unk
Hist ory
ĠCurrent ly
ĠComm ander
Ġprop ose
Ġâ Ĩ
Ġstri pped
Ġterr ifying
ĠZ ach
ig s
Ġhyp oc
Ġint ends
ĠK er
Ġlight ning
Ġdiscon nect
qu ire
os ity
ond e
Ġsub t
Ġstud ios
Te am
Ġmole cules
Ġreal ised
Ġcalcul ations
ĠM aur
EL L
L ear
Ġsan ction
ĠCub s
ĠNaz is
Ġcampaign ing
Ġfar mer
Ġenact ed
ĠR u
Ġover head
Ġtoug her
omet er
Ġcal ories
Ġintrig uing
ig ue
ĠW ing
Ġkn ees
Ġrecru ited
B ron
Ġsc are
Ġconf erences
Ġinvestig ative
Ġclar ify
V I
ĠPro cess
Ġeconom ically
Ġdep ict
Ġshe ep
Ġatt ach
Ġsubst ances
we b
ĠC art
undred s
] ;
Ġpro long
h or
Ġdr agon
ograp her
Ġsymb olic
g on
Ġr ugby
Ġprof iles
Ġsocial ism
us c
Ġcrit ique
ĠD ynam
Ġmor ality
ĠWeek ly
ar in
Ġco pper
Ġgu ided
ĠWe ather
Ġaff irm
Ġcent res
Ġhomosexual ity
Ġflow ing
Ġcoll ision
ĠP owell
N E
Ġpres erved
Ġst ones
ĠF am
Ġload s
ĠBoe hner
Ġsl ice
Ġplace ment
ĠV oice
Ġunw illing
Ġassess ed
Ġnorm s
it ations
Ġprosper ity
Ġn aming
Ġproceed s
Ġfurn iture
Ġcou pled
anche z
p her
> <
by e
ĠC and
ĠI L
ĠTib et
V M
Ġspecial ized
Ġhed ge
Ġa ug
Ġnot ified
imp se
ĠPro s
om ers
ĠSen ators
Ġgl impse
ok ia
Ġrelig ions
Ġimag ery
ograph ical
Ġple asant
en z
ĠT u
ĠEff ect
Ġsubur bs
Ġsequ ences
Ġfif ty
Ġsimpl er
Ġdeliber ate
Ġcrit ically
âĢĿ :
ĠTr aining
Ġfav ored
c urrent
Ġhe y
Ġexpl oded
Ġv ag
ĠBe aut
ok u
ĠI de
ĠF ight
Ġch airs
Ġporn ography
pe ction
ĠJo el
Ġind ie
izz ard
ĠSteven s
ĠCarib bean
ĠT ogether
J uly
Ġor b
ĠAlex and
ri ans
ĠH E
ĠU ser
Ġdrag ged
ĠChe m
Ġsket ch
ĠHung ary
Ġcryptocur rency
Ġpot ent
Ġmind set
ĠP ic
Ġref uses
Ġtri o
Ġoffer ings
ĠC ulture
Ġencoun ters
Ġh ometown
Ġl ending
ĠMed iterranean
ĠAny one
ident ified
Ġrevers ed
at able
Ġ12 5
Ġpack aging
|> âĢľ
' )
Ġemphas ized
Ġinfring e
lin ing
i ably
ĠZ en
Ġincorpor ated
Ġsc roll
Ġfl ower
ĠMil an
Ġreal ise
M D
Ġen velop
Ġinc om
Ġ0 7
et on
ĠCh an
Ġgl ance
os ph
imens ional
Ġcur b
Ġgest ure
ues e
F eb
Ġdis gr
Ġdisc retion
Ã ł
Ġst ole
E nd
on est
F il
ĠW or
ost ic
ĠH ig
Ġbre ed
Ġtravel s
AM E
Ġtal ents
ul ously
ud a
Ġthr illed
ĠErd ogan
Â Ģ
d eb
am pton
Ġturn out
oll o
cont ent
M att
Ġl ing
il ia
Ġcop e
Ġa irst
Ġcontin ually
A pril
gh ai
ĠMin neapolis
Ġcance led
b ra
Ġindict ment
Ġany time
Ġstrength s
ed In
Ġmin ers
ĠCons ider
Un ited
ĠB ak
a q
ĠM ull
ĠG ore
ĠImm igration
Ġâ ĸ
per ty
Ġder iv
1 30
ĠLu is
Ġcontrad ict
F eed
Ġm old
ĠK ay
mer cial
k ers
Ġfather s
Ġcommun ist
Ġshare holders
ĠEdd ie
J eff
iber al
ĠMus k
Ġcon tempt
P ower
Ġe rect
ĠD ian
ous ands
and ing
ĠA G
Ġha un
ĠM umbai
ĠGO OD
OS E
Ġaccount ed
rik es
Ġres il
Ġrest rain
Ġflee ing
Ġs add
Ġdes ires
asc us
Ġthread s
Ġdecent ral
ĠEurope ans
ĠPriv acy
Ġapplic able
ens en
Ġtow ers
Ġind ivid
Ġg ambling
Ġsc al
ug ar
ĠT ouch
Ġte lev
B rien
Ġhas ht
Ġvo iced
Ġreb ounds
O H
ad ian
. ).
ĠT ask
ĠG am
Ġlack ed
Ġsu cc
Ġpract icing
ĠStr ong
h at
P ac
Ġorder ing
Ġd airy
Ġnot ification
gr at
Ġfact ions
Ġimport ed
Ġhabit at
Ġoverwhelming ly
Ġhead er
ĠÃ ł
Ġdict ators
ĠLook ing
Ã© e
ol ics
u art
it ted
Ġref res
Ġcritic ised
est e
Ġman uscript
Ġel ites
Ġscholars hip
ĠM ath
Ġins pection
Ġ9 00
ĠW es
Ġdep icted
ĠMc D
an ies
F ile
s ight
re cy
Ġsw ap
ask et
ĠB aby
T Y
ĠD im
ĠE thereum
ĠTh ai
Ġfru its
ny der
ĠMart inez
sh aped
charg ed
Ġprec ip
ĠM aking
ĠGib son
Ġpredict able
Ġtr im
on ut
Ġmeasure ment
Ġconv ictions
ĠJ ed
Ġl ips
ch ant
ĠJ ared
Ġcollect ions
Micro soft
ĠCast ro
ĠHel p
ac cess
Ġsur plus
Ġfemin ism
Ġra ids
O kay
Ġwas ted
Ġactiv ated
tr ue
ĠPal m
ĠCo ff
ĠLat ino
Ġorg ans
ĠUn ity
Ġfe ver
Ġdist ress
Ġsu ite
ab lo
Ġcolumn ist
Ġwhe at
Ġab ortions
ĠHT TP
Ġfinger print
Ġpoet ry
ĠWood s
um my
Ġ: )
m ember
y on
Ġiss uing
Ġdepos its
ĠE P
em et
gh azi
Ġforth coming
Ġactiv ation
sec ution
Ġbe ans
ĠL akers
Ġj ets
Ġun law
Ġappreci ated
Ġt ender
Ġle ver
Ġsatisf y
C all
Ġoff s
Ġpurs ued
ĠB esides
ke ll
ĠN ine
Ġrall ies
Ġconst itute
ÃĥÃĤÃĥÃĤÃĥÃĤÃĥÃĤ ÃĥÃĤÃĥÃĤÃĥÃĤÃĥÃĤ
ĠY ellow
Ġwe aker
Ġprogress ion
Ġru in
ĠAdv anced
H ello
Rober t
ON E
Ġsup reme
Ġlit igation
Ġh urd
Ġcons cience
p resident
Ġch ick
Ġfin ances
ĠLight ning
Ġcomp iler
ĠDem ocracy
Ġj unk
ĠAn a
Ġamb ig
ĠTex ans
J oe
Ġd awn
Ġcont rac
Ġfre el
ĠMer cedes
Ġcrack down
B ro
Ġbe ast
Ġschol ar
gom ery
Ġpost ers
ĠJeff rey
ib les
otten ham
Ġefficient ly
Ġwh oles
ĠM ade
ĠNorm an
Ġs id
ĠD w
Ġm g
ĠE S
ĠC urt
s omething
ce ans
Ġsh oe
Ġkilomet res
Ġobsc ure
v oc
Sh ort
Ġhel m
n ia
Ġcar ing
Ġguarante es
L ab
s un
ĠSum mit
M E
ĠTra ff
ĠD I
ĠMag n
200 7
ĠAdd ed
Ġuncons cious
ĠS au
Ġmo ist
Ġt ast
ig m
ĠLabor atory
ĠVis it
g ue
Ġstart ups
ĠPoint s
Ġactiv ism
ĠStud ent
ĠK enn
Ġneg lig
ãĢ ģ
ĠToy ota
ys on
k ar
iment al
Ġneed ing
Ġconfir ms
ateg ory
Ġdes cent
Ġliber ties
AS S
Ġinf inite
Ġg ly
Ġconcent rations
Ġb ored
P ass
Ġsc attered
le ague
Ġaccording ly
Ġthreat ens
m ax
Ġinstall ing
ĠA ub
ĠC it
Ġ0 9
Ġrock ets
ĠCreat ive
Ġun int
Ġro oted
Ġsec uring
Ġwood s
Ġhy pe
Ġinstruct ed
Ġpass port
ĠHud son
Ġdis hes
Ġport rait
ĠNY C
Ġgot ta
Ġir ony
ĠGand hi
Ġinf ilt
ĠB omb
p aid
Ġtransport ed
Ġassert ion
Ġunh appy
Ġfix ing
at ics
ĠFred er
D el
ĠCan cer
ĠAh mad
Ġwat ches
Ġr abb
Ġd ining
ogen ic
Ġch im
Ġman ually
t i
Ġcry stal
ing le
Ġcustom s
Ġint ensive
ĠStat istics
am mar
Ġprofess ors
oul os
Ġpat ents
raw ling
ĠMarg aret
Ġassign ment
ĠB att
os aur
ĠL ion
ĠYou th
Ġsp here
ĠAd vis
Ġund ocumented
s n
ĠC ool
ess age
Ġremain der
ĠI R
own er
ĠMos ul
ĠW alt
AC E
ĠSpr ings
ĠHe zbollah
ie ce
Ġ196 6
ĠB apt
ĠBoy s
Ġshout ing
Ġhe ating
ĠCh ad
uck ed
ris k
ĠInter ior
Ġceleb rities
ĠS K
ĠO pt
ĠW ang
ĠK um
Ġtra ject
Ġsurvey ed
ĠT ree
Ġproject ions
ĠC P
Ġen vision
Ġsh ark
Ġpost season
Ġge omet
Ġreact or
Ġdis gu
Ġc abin
arm ing
Ġl i
Ġsl ated
els h
Ġmarg ins
ĠL arge
Ġbull ying
AC T
ys ical
est on
Ġmix ing
ĠN ad
Ġt ennis
Ġsystem atic
ĠSqu ad
Ġeas iest
Ġbackground s
Ġsound track
Ġvacc ines
Ġgr im
Ġfavor ites
ĠMon ster
ik o
Ġmin es
Ġment ality
ĠMov ie
Ġcommod ity
N on
erv ice
Ġin k
ĠB anks
Ġsu e
Ġdig est
Ġconce aled
Ġacadem ics
g irl
cl ub
Ġapart ments
ĠId ent
Ind ia
Ñģ ÑĤ
Ġaer ial
Â »
Ġbe ats
Ġadvent ures
Ġpr one
Ġd ug
ĠBM W
F ive
Ġw ra
Ġbatt ling
ĠCom cast
ĠL ower
Ġforg ot
ĠS id
Ġdress ing
12 5
Ġm apping
Ġm ud
Ġtou ches
on al
_ {
Ġcome back
Ġgrass roots
Ph il
Ġbl ade
S il
ĠL O
ĠM is
Ġ0 4
Ġdis puted
ĠG aming
ĠCom ic
r ising
h art
j pg
A E
ĠPri or
emet ery
ĠD rop
Ġmet eor
Ġ0 8
m ount
C re
Ġc aucus
Ġ( Â£
Ġpromot ional
ĠP or
Ġhe els
.' "
Ġpark ed
Ġfl ies
ĠH im
ĠH onda
Ġch rom
Ġc ables
Ġsm iling
Ġshout ed
Ġappreci ation
ĠY ale
ĠMal colm
Ġcontinu ously
ĠP etro
Ġl ied
ĠNe uro
id ity
ix els
Ġnut rition
Ġflags hip
Ġsl aughter
Ġble eding
ens ed
ĠOper ations
agg ering
Ġca f
Ġindic ator
Ġgas oline
Ġhand les
Ġsc i
ph is
Ġan om
Ġdispl aced
ĠForm ula
ĠTe levision
Ġdep uties
Ġremote ly
Ġmathemat ics
Ġs od
Ġm ol
ĠÂ »
z el
Ġsc ales
Ġrhyth m
ĠKen ya
Ġm i
Ġtrop ical
Ġcol ony
s u
sh it
es ville
r ace
ab lish
ĠAb raham
ĠF alls
ĠInd ependence
ĠA K
he y
at ility
Ġstr angers
Ġse gments
Ġmulti pl
atch ing
ĠCol lection
Ġ( -
Ġmount ing
Ġw ield
Ġstaff ers
ĠP ract
Ġgen ocide
ĠDam ascus
Ġver bal
ĠCoun ter
ĠBelg ian
ĠSt rip
Ġpolic ing
Ġacc laim
Ġfl ames
Ġimm unity
mid t
ĠFin als
Ġill usion
ot er
ĠBen ghazi
l isted
ĠVin cent
ĠM ons
Te xt
Ġl inem
w age
ĠCry stal
Ġd ough
or ically
Ġdis reg
Ġstat ute
Ġcle aring
on gh
Ġunp redict
Ġsh ook
Ġpull s
ĠSim p
Ġdig ging
ĠSome one
Ġprompt ing
im g
Ġcompet itor
Ġic ons
W W
r ise
Ġport ions
Ġinherent ly
Ġcharacter istic
Ġg orge
S N
ig ion
Ġbr idges
Ġconnect ivity
Ġcompar isons
Qu est
Ġbench mark
ĠCo in
ipe g
ĠWal mart
AS E
Ġ196 3
ĠCar r
ad itional
ĠWe ap
th reat
Ġaffili ated
ĠM end
ĠX i
ro v
ĠWh ats
1 000
f ix
Ġamb itions
el ed
Christ ian
ĠBr ain
Ġto pped
ĠK o
ĠRaven s
Ġsh aking
ĠBr ight
ar se
w ait
ĠD elta
ach t
Ġcertain ty
Ġcent ered
Ġsmall est
Ġbehavior al
Ġcar n
Ġcro re
P age
ĠB ren
Ġbl unt
Ã¶ r
W omen
ĠNew castle
Ste ve
ĠMajor ity
cific ally
Ġd are
ĠTom my
OU R
Ġsynt ax
ĠW a
Ġdispos al
ĠHop efully
ĠIniti ative
yn asty
lud ed
Ġapplic ants
ĠCont ent
ud ed
Ġpit ched
run ning
Ġfortun ate
Ġw ished
OR D
Ġmusic ian
Ġup hold
ĠW ITH
ĠUp on
Ed itor
Ġmed ieval
ĠC ash
Ġwild ly
G C
Ġimpact ed
Ġreprodu ctive
ĠTH IS
ĠA er
gg ing
ĠSat an
Ġstorm s
Ġst ap
Ġdis ruption
ĠSch olar
Ob ject
UL L
Ġpit ches
M ad
|> (
le en
Ġview er
Ġwe ighed
ĠB ody
Ġcontribut ors
C onst
Ġgl ac
C AR
Ġhe m
ĠG raph
Ġat op
ĠC opyright
B as
Ġur anium
s ay
ĠPortug uese
we gian
Ġanx ious
ĠApp arently
Ġcook ed
Ġd ent
Ġfoot print
Ġbe es
Ġh ipp
ĠR ank
Ġ| |
Ġamend ments
he art
ot ive
c amp
igg s
Ġaest hetic
n ar
sh aring
ĠA CC
Ġst ub
Ġ0 5
ĠW ere
Ġaver aging
Ġeat en
ĠH ERE
tit le
Ġst int
ean or
Ġadjust ments
âĢĿ ).
s ite
Ġmy st
Ġst akes
ong yang
ĠRe yn
Ġas leep
Ġve ctor
Ġprior it
h h
ĠW ings
ĠK i
ĠEm peror
ur ally
ÃŃ a
V is
Ġtheat re
ĠArch itect
p ical
Ġem pir
Ġindivid ually
ĠM ann
Ġim minent
ow itz
Ġrep ository
Ġfaith ful
Ġpat ches
en ly
Ġphys ic
Ġsh adows
Ġr ipped
ĠR ule
Ġcinem a
akes pe
Ġp und
Ġadvis ory
Ġe go
ĠSt alin
Ġcon grat
Ġdes erved
Ġattend ees
or um
ich t
et ooth
Ġst aring
ĠIndust ry
Ġfe ather
ĠOther wise
Every thing
ĠDan ish
3 50
Ġfound ations
Ġsp ont
Ġcru ise
ra vel
Ġdemonst rators
Ġr anges
d ollar
ĠLegisl ature
P eter
Ġro d
Ġrecover ing
F ore
ĠVal ent
ĠGr an
c ourt
ĠK aren
N O
ĠCar roll
Ġcand y
ĠH S
Ġsufficient ly
ĠM ob
ĠB ills
Ġcar b
Ġdep osit
ope z
Ġque ue
Ġdistinct ive
ĠCrime a
} ,
Ġju ven
Ġinspir ing
Ġlegitim acy
Ġcl ue
ad ata
Ġbon uses
Ġjail ed
ĠS QL
chn ology
Ġj azz
,' '
Ġcert ified
Ġn ucle
Ġcr ap
Ġrail way
ĠReds kins
Ġhier archy
T T
ĠIm pro
Ġundere st
Ġhistor ians
Ġclim bed
ĠS ale
ĠK urt
Ġal erts
Ġincumb ent
Ġmetab ol
Ġn ail
ort on
ĠColomb ia
Ġsupp ress
Ġadjust ment
Ġpl ausible
ould er
Ġun believ
ult z
ĠR A
om ore
Ġc age
Ġpar as
ĠMet al
ĠLe ave
Ġsuprem ac
Ġcr ashes
Not es
ĠUlt imate
Ġab usive
Ġrein force
ĠCons umer
Ġque en
Ġcook ies
Ġphys icians
bro ok
pect ives
ĠGener ation
g ow
b ach
Ġt ide
M or
Ġe cl
um per
Ġexplan ations
is i
Ġa fore
id i
ĠW E
Ġmin imize
ĠB ent
Ġcont ender
ĠL oc
Ġut ilities
Ġshe lf
ant ine
erv ative
Ġamb ition
Ġimprison ment
Ġblow ing
op oulos
Ġneg lect
% ),
Ġfound ers
ĠD ame
ĠH az
S ure
ĠO m
__ _
Ġresc ued
Ġoff enses
Ġposition ed
T est
ĠId aho
orth y
Ġzomb ie
ĠG or
Ġlight ly
Ġconsult ation
Ġvel ocity
Ġmet er
Ġsc am
Ġdirect ing
ĠShan ghai
Ġcig arette
Ġelect orate
Ġdeleg ation
ĠCre ate
min ing
ĠCommon wealth
ĠSimp son
Ġflav ors
Any one
Ġgi ants
M ENT
st ation
Ġde ar
als h
ĠCh ampion
ĠPer formance
âĢĿ ?
ĠWest minster
Ġmotorcy cle
ĠN ut
Ġboy cott
Ġansw ering
Ġby tes
Ġ( +
Le g
H ome
S w
em pt
Ġeduc ate
ĠK il
Ġsie ge
t ax
Ġbox ing
Ġhuge ly
Ġincorpor ate
Ġapp ar
Ù Ĩ
ĠThe ory
ĠMe g
Ġmor ph
Ġpersu ade
l av
ĠM ol
Ġpromot ions
ĠS witch
Ġexplo ited
ĠLeon ard
ob a
Ġv icious
Ġal igned
ĠCol ts
ĠLim ited
Ġp ork
Ġhalf way
uter te
n els
ĠS anchez
Ġrow s
ĠM asters
ĠF ix
Ġrun ners
Ġf reed
ing rich
Ġab rupt
Ġlad der
osh i
ĠArm strong
s an
Ġt a
ĠK end
am on
Ã© t
prising ly
Ġcollect ively
AR K
ĠM oss
Ġsim ulation
Ġch asing
Sp ace
h aw
Ġoff line
ĠE t
ason able
Ġluc rative
Ġgener ates
Ġintegr al
ĠS ie
ĠK ane
Ġrecogn ised
Ġshow case
er ness
R ad
ash a
an as
Ġdies el
Ġconsist ing
ĠP orter
ĠM add
akespe are
Ġaccess ed
Ġabsor b
ĠV M
Ġplant ed
Ġelement ary
Ġautonom y
Ù Ĭ
ĠEs pecially
ĠW ant
Ġsli pped
in ner
Ġfif teen
Ġassoci ates
ĠSocial ist
ÑĢ Ð°
Ġb ru
Ġopt imal
ĠO culus
ĠA F
ĠU CLA
ĠM ut
Ġcurric ulum
Ġmilit ia
ĠSteel ers
ĠInte gr
Ġcere mon
Ġjer sey
ĠAn alysis
ĠE ight
Ġp iano
R yan
Ġlow ered
per m
Ġmar riages
olit ics
ĠConfeder ate
Ġsp ike
al one
ĠLe x
Ġman a
ĠPriv ate
ĠG N
am iliar
ĠS B
Ġacc ent
ad ays
b as
I ran
asc ript
ber ger
Ġadv ancing
Ġnegoti ated
Ġs oup
Ġop ener
Ġancest ors
Ġtri v
Ass ad
Ġpo em
ĠEm ir
ï¿½ ï¿½
Ġw itch
ĠStr ateg
Ġappeal ed
ĠS add
He alth
Ġauthor itarian
Ġd orm
att ack
ĠD j
Ġeff ic
Ġrecruit ment
Ġmatch up
Ġâ Ī
M ap
ĠF o
Ġwe ed
oun ter
ĠMin i
Ġbl at
Ġbr on
Ġquant ities
ale z
Ù İ
Ġslow ed
Ġpist ol
b us
ĠI Q
ch t
ew ay
occ up
Ġbl oc
Ġport able
a que
ĠQ ur
Ġsatisf ying
Ġmanip ulate
Ġimp osing
Ġinhabit ants
um ed
ĠÂ Ń
Ġquarterback s
ĠS ri
And rew
ĠX L
ĠâĢľ [
Ġunp opular
Tex as
Ġo w
Cont act
il itation
Ġprotect s
Re view
Ġper ipher
ĠT on
Ġillust rate
â Ļ
Ġt ales
ĠJ ama
Ġalumin um
def ense
b ank
ĠT ravis
Ġu b
ment al
Ġloc ate
Ġp iss
Ġclass ification
ĠMon th
Ġconsist ed
Ġemb ark
ĠH ousing
Ġhon ored
Ġpay roll
H C
reg ular
Ġhom icide
Ġfact ion
Ġtreat s
im ity
Ġche ss
ir ies
k it
Ġdelight ed
Ġar rog
Ġres ent
Not hing
Ġo we
OC K
Ġblog ger
Ġprem ature
ĠCan n
ĠN ord
ĠEn forcement
ĠGreat er
ator ial
add afi
ĠK ap
Ġtrave lled
re ctions
ik er
Ġcrus hed
Ġup s
ell ed
Ġp ond
Ġp estic
ĠM ills
Ġconsum ing
il ight
Ġdiam eter
Ġprotest ing
Ġfert il
Ġadminist rator
Ġp ul
ĠV ent
ef e
Ġlog s
Ġhapp ily
road s
ĠS outheast
ĠF ace
ĠTer min
ĠD olphins
Ġinv ention
Ġmet rics
ĠOrig inal
Ġacadem y
ĠS nyder
ĠPr ison
Ġprol ifer
Ġdec isive
ĠAmb assador
ant om
Ġt ended
Ġat omic
ke eping
Ġart illery
RE D
Ġover view
Ġv ic
Ġy oga
Ġpat ron
ĠGl as
ball s
ĠS eth
Cont in
Ġinc ap
ĠDar win
m ph
ĠN GO
ret ty
Ġg ates
Ġsent encing
Ġinstrument al
ĠSal v
l iv
Ġuns upp
Ġno ble
Ġc ad
Ġex cer
ibl ings
Ġsimilar ities
EN D
Ġclin ics
ad h
Ġrecogn ise
ĠCath olics
Ġdetect ive
A ir
ĠCase y
ĠD erek
Ġdri ed
Bl ue
d est
el ines
l it
ĠR ut
ĠS pl
Ġqu ot
ĠSc reen
N ob
Ġdat as
el ong
ĠDel aware
it ous
Ġsl ammed
met ic
Ġconstitu ents
Ġliv est
Ġcontem pl
ĠH ence
ll ah
Ġrest oration
F orm
ĠRichard son
ourn ament
Ġprob ation
Ġupgr aded
Ġyield s
ĠB O
s ix
p ers
Ġincl ined
ĠÎ ¼
ĠL ate
Ġven ues
Ġlad ies
connect ed
S cient
ĠO ften
Ġd ude
Ġprohib ition
Ġrif les
ĠY u
Ġcomb o
ĠLouis ville
Ġmark ing
g ay
Ġmasc ul
W ould
Ġsp ying
Ġapp le
Ġseek ers
Ġcat alog
ĠB rett
I ES
r ational
Ġgen ome
C ome
Î ½
Ġenthusi astic
k ov
ĠG az
Ġshow c
Ġincons istent
og yn
ĠWe bsite
ĠNich olas
Ġmis er
Ġbreat he
Ġr ip
Ġfart her
Ġappl aud
ĠV a
M ain
Ġ196 2
Ġsl ides
ĠHus sein
Ġr ider
ĠW elsh
Ġexp ans
Ġfrag ile
Ġinvestig ator
ĠDise ase
Ġn odd
Ġl ion
Ġbi ased
Ġthr ust
ĠGene va
ĠNo ah
ĠN okia
dep th
ĠHop kins
Ġhum ble
Ch ild
uff le
Ġlic ence
ĠT rip
Ġpr iced
ns ic
Ġh ref
Ġpost p
Ġcor rection
lev ard
Ġremark ably
Ġimm un
ĠPar ks
T otal
is le
ĠMont gomery
ĠRepresent ative
Ġadvis or
Ġspe ar
ĠLoad ing
Ġcon form
ĠMatthew s
ĠC rew
Ġvari ants
" ).
ĠLear n
ig o
Ġrecip ients
ur bed
Ġsynt hetic
Ġshel ves
om on
Ġdep ressed
ĠA br
Ġun related
ĠW rest
ĠNorth west
Ġweakness es
Ġn ostal
Ġend angered
Ġt ires
Ġbail out
Ġcl ips
ĠSy n
Ġc otton
Ġcatast rophic
asc ular
b ane
Ġtro phy
ĠHuff ington
ĠEll is
ĠP ierre
Ġtight ly
Ġjud ged
Ġg ren
ĠC airo
Ġnic he
he ster
Ġo ath
w ent
ourn als
v ance
Ġev olving
ĠLeaf s
ĠB ach
Ġun con
Ġutil ize
ĠW ait
ĠEag le
it ially
serv ice
amp ire
10 1
Ġalleg es
Ġst aggering
Ġcol ored
f inal
Ġair ports
Ġgang s
Ġup ward
Ġp oured
Ġnurs es
o ir
Ġpract iced
Q ue
c ond
Ġbre wing
names e
Ġfor ty
Ġsec urities
he arted
ĠD oc
reat ing
Ġmon itors
q a
Ġcooper ate
D ate
ĠT ak
ĠVeter ans
p ose
and als
Ġr iots
ĠV ideos
Ġinterven e
ĠH appy
ĠT ab
ĠAn onymous
d ist
Ġg em
Ġsl im
Ġcoinc idence
U G
ans om
Ġdown s
We b
ĠSur face
Ġcamp uses
ĠK ids
Ġpros pective
Ġencry pted
Ġbook ed
Ġextensive ly
f un
Ġrel iability
Ġhor r
Ġchap ters
Ġinterf ere
ĠSt ories
Ġank le
ot ics
ach i
Ġoptim ism
ĠAs k
Ġecho ed
ĠCD C
Ġmonit ored
ĠH A
a uth
ĠP ew
Ġrem inis
iat ric
Ġprop osition
Q U
ĠUS C
que z
il ers
ĠY am
Ġpredomin antly
ĠJ in
Ġflo ors
ĠMun ich
ĠThanks giving
Ġsepar at
Ġwar ns
Ġang les
p ically
B B
oy le
Ġsymp athy
E s
ĠVis ual
ĠS ter
ĠIS BN
Ġtask ed
Î ¿
ĠH ass
Ġint oler
Ġm igrant
Ġinsect s
Ġdefic its
ĠA FL
Ġgenet ically
l ance
Ġwell s
e ree
ent ry
Ġwe ars
Ġre nown
in ers
ĠV illa
b ast
ĠA pr
F ar
ĠGr ace
ĠAg ent
Ġbound ary
Ġver b
Ġenfor ced
Ġfore most
ĠArn old
i ott
p res
Ġw ives
ĠB eth
ĠU P
ĠS r
ĠTun is
b ucks
ĠPr ide
U ser
Ġste ering
De velop
Ġne arest
ĠACL U
Ġpract ition
r ays
ĠSom alia
B rown
Ġfil ters
ĠE sp
Ġwhistle bl
Ġm a
ĠJ ays
ĠP ub
Ġnav ig
Ġcoord ination
ĠHe brew
Ġext inction
Spe cial
Ġinher ited
Ġcl iff
d imensional
ĠK ush
st ated
ĠE ye
Ġbre eding
Ġpositive ly
ard i
pro cess
ĠBudd hist
ĠR ot
ĠKurd s
ir us
AT H
Ġcomb ining
itz er
Ġfe ud
ĠC amb
Ġpartic le
Ġfor wards
Ġad ul
Ġincl usive
Ġsh ine
ĠAct ually
Ġs acks
Ġcul p
Ġ10 5
ĠTri ple
ID E
ir ation
ĠFor bes
m ake
ĠSw an
s uper
ann ers
Ġscar ce
os c
Ġd ip
ĠReg ion
Ġe ld
Ġpri ests
Ġreward ed
ĠP engu
Ġassist ed
h all
ov an
Ġatmosp heric
D ou
Ġd oses
Ġemer gence
iet h
Ġdescript ions
Ġhand ing
ĠGet ting
I ts
Ġp aste
ey ed
Ġche f
Ġt ense
ĠSchool s
B ox
acer b
Ġobtain ing
Ġsens ible
Ġrelax ed
Ġafore mentioned
Ġinput s
is co
ĠMem phis
ĠWinn ipeg
y outube
ĠFl a
Aug ust
ĠT X
c ock
cons cious
p ad
ĠCl int
Ġg rief
ĠCy ber
ator ies
ĠAbd ul
ĠMon te
ĠW AR
am ount
Ġkind a
Ġw oke
Don nell
an cer
Col or
ek ing
Ġins ufficient
Ġbo asts
ĠHend erson
ĠK enny
sex ual
Ġz oom
Ġther mal
Ġcaut ious
Ġcommer ce
Ġimpro per
ch at
16 0
Ġcandid acy
ĠP aper
ĠL um
Ġdeb ts
200 6
Ġrespect s
Ġillust rated
Ġc oding
Ġconv entions
Ġuncom mon
Ġdys function
ĠR alph
Ġst airs
ĠH ack
Ġpl um
Ġpersonal ities
het ical
L ine
Ġlight weight
Ġreal ities
Ġslow ing
od er
ãĥ ¼
Ġreal izing
Ġbelong ed
Ġoverlook ed
Ġ12 8
r ina
{ "
act iv
Ġupload ed
Ġener g
are a
Ġb od
Ġadd ict
Ġbo o
M iss
id y
Ġexp osing
Ġcycl ists
ĠCur ry
ĠF ixed
Ġnurs ing
ĠD ust
Ġc ensus
Europe an
Ġu m
display style
Ġth rive
Ġtest ify
Ġintu itive
sh adow
Ġperform s
ĠP HP
l anguage
ĠVal ue
Ġautom ation
f illed
Ġadd itions
ĠBar nes
Ġpo ised
Ġtour s
ĠPy ongyang
Ġunsupp orted
Ġquick er
Ġenjoy s
ĠBash ar
Ġord inance
Ġcirc ulation
Ġadm ire
Ġoutrage ous
ĠSt rike
ĠReg ister
Ġc ripp
ĠH off
Ġblank et
play ed
Inte rest
ĠN uclear
an throp
Ġbas ics
Ġse ize
Ġred es
Ġtat too
ĠRe lease
Ġass erted
ĠKle in
st rom
Ġag grav
ĠSte phan
Ġt ags
ĠB ark
Ġorig inated
er ie
Ġsubject ive
Ġpaint ings
ĠBer g
ĠPre vention
g rown
Ġ196 1
Ġrecip ient
Ã ¸
Ġa in
Ġje opard
Ġty r
ane y
O p
Ġvibr ant
Ġno on
ile m
Ġcomb inations
Ġcas ino
Rich ard
ĠRe act
ins ki
Ġwond ers
Ġb ent
ĠSil va
Ġcoord inated
L ocal
Re illy
Ġgu ides
Ġrepe ating
ĠUn less
Ġgr ades
ĠWild life
Ġredu ctions
Ġvol t
un al
ĠSh akespeare
Ġawa iting
f air
et z
Wh atever
ĠA j
Ġl oot
Ġimm ers
ĠKas ich
Ġliqu or
Ġmonop oly
Ġwh ales
ĠH ook
Ġparticip ant
ĠC raw
Ġfl own
Ġeval uated
eng ine
ĠB ec
Ġspr int
ĠWord Press
ĠSch ne
Ġs way
ĠTit ans
ra f
Ġim aging
Pl us
ĠM atch
ĠNor wegian
ĠHold er
ĠAd rian
Ge orge
S un
Ġred irect
cl ock
Ġdeal er
ĠFal cons
Ġcl ues
ĠV I
il ogy
xt on
ĠCom plete
Ġhilar ious
Ġ0 6
ĠE aster
Ġmention ing
Ġtrad ers
Ġreflect ing
ĠBudd h
Ġh obby
ec d
ĠAl z
amer a
p ict
ĠEmer gency
Ġtast es
Ġabund ance
Ġdetain ees
ĠDod gers
ĠNov a
Ġsc iences
Ġmerch and
up iter
Ġnever theless
ener gy
.' '
Ġan ten
Ġbuy er
ĠRand y
ag le
Ġsoul s
Ġwh ale
os ion
Ġpick up
AA AA
Ġs i
ĠJ unior
S al
f amily
Ġdev il
ĠC I
Ġinher it
iz oph
Ġtriv ial
ĠT ories
ĠF aith
ĠEm ily
ĠH ost
az or
Ġc ared
ĠR ust
ĠPear l
ĠR ules
Ġbot hered
ĠG ang
u ber
ĠH ob
gg y
Ġlit eral
Ġform ats
ĠG oth
Ġfl uct
ĠAt hens
L og
L ove
Ġwatch dog
ĠBa iley
ĠIsa ac
ine a
ĠGab riel
ĠAgricult ure
Ġopt ical
Ġsl ogan
ĠK id
us p
ruct ed
Ġdatab ases
W elcome
Ġu mb
h it
ĠU l
Ġdist ances
Ġman ga
Ġbl u
Ġunder grad
cy cl
b illion
Ġrece i
Ġsam pling
S ources
am ples
e i
Ġc ivic
us k
Ġaston ishing
ĠT ottenham
ĠC ob
ĠEr n
en es
Ġdark er
ener ation
Ġobs essed
Ġdemonst rating
Ġgr ams
ÂĢ Â
Ġhur ting
ĠMet ropolitan
st airs
Ġsun light
Ġinadequ ate
Ġins isting
l at
Ġexha usted
Ġwrit ings
ĠT win
ĠTh rones
ĠS ite
Ġunder water
rop he
ĠK iev
Ġemp athy
Ġp unk
ut ton
ĠFerr ari
Ġfin est
ĠJosh ua
Ġcou ch
Ġlobby ists
ep rint
it ime
Ġs iblings
ĠEv an
S ocial
ĠPere z
Ġoverwhel med
Ġorgan isms
C ON
ac i
ro e
Ġdiplom ats
Ġe ternal
ad os
ĠJen kins
Ġst agn
Ġvast ly
Ġserv ants
ĠMc N
ĠAustral ians
Ġm es
Ġprotocol s
ĠB in
ĠM UST
ĠDep ression
Ġmicro sc
" ),
Ġcon gest
ĠC F
Ġsm iled
Ġsn ake
ĠB our
es ar
ĠSt uart
Ġhorizont al
Ġassault s
Ġpremium s
ear th
alk ing
Ġde portation
Ġpus hes
G P
Ġex acerb
dri ving
Ġmole cular
Ġw olf
Ġen compass
ĠP oke
W as
Ġprox imity
ĠJ ob
Ġmet ro
Ġunderstand able
Ġconj unction
ant a
ĠLe aders
ĠHer oes
Ġcraft ed
ĠS weet
Ġpay load
Ġspin ning
s ens
ĠA IDS
im edia
ĠT iger
ĠS gt
ĠHe avy
Ġbank ers
ĠF uk
Ġproceed ed
Ġb og
Ġbarg aining
Ġwork out
Ġcapt uring
Ġjew el
o at
Ġadv ise
Ġprim aries
Ġver ified
Ġen light
ophob ic
Ġg ases
Ġ19 48
ĠN y
Ġinaug uration
Ġb ounce
ĠProp het
Ġmed ications
ĠSt range
im ination
Ġapolog ized
Current ly
v id
Ġst aged
inent al
Ġl ingu
osa urs
Ġshall ow
Ġk et
Ġactiv ate
Ġaccompany ing
ĠPro bably
ĠD ylan
Ġax is
Ġsec recy
ere rs
inte gr
ĠA ur
Ġsurf aces
In s
ĠNot es
Ġinjust ice
Ġimprison ed
D isc
ĠSc ript
Ġpromot es
ĠKash mir
Ġj ar
Ġsus cept
Ġimpl ied
ĠViet namese
ĠSach s
ĠP ul
Ġsupp liers
im er
Ġrebell ion
ĠShe ll
izoph ren
ĠM ix
ĠAp ollo
sh ine
Ġun named
Ġind ul
c ur
Ġnational ism
ĠL av
n is
D ear
r ab
H y
Ġalph a
Ġfiref ighters
ĠN um
ĠG ingrich
h ouses
ig el
Ġcomp ile
Ðµ Ð½
Ġsp am
ĠHe aven
ĠE A
ise xual
ĠSh op
Ġlo oph
Ġdisapp ro
Ġ **
Ġstate wide
S QL
Ġin ning
V C
le um
H and
Ġwho lly
Ġrele g
Ġbe am
Ġtra it
Ġadminist ered
ĠRe x
Ġgener ator
Ġpast or
Ġnot or
Ġtr ails
Ġincom plete
f ood
Ġretail er
R ub
Ġdr astically
ĠEconom ics
Ġcompl iment
re a
ĠD ow
Ġshot gun
Ġassum es
s ic
ĠF ew
Ġb aking
Ġen rolled
ĠN am
ĠD at
Sand ers
Ġun b
Ġsl ots
Ġb rib
mit t
Ġto ggle
âĢĵ âĢĵ
Ġhur ts
Ġcont ention
Ġpop ulated
ĠW ag
ĠCro at
Ġfit ted
ĠMar ie
Ġeleph ant
Ġhint s
ĠInd y
Ġpa ired
Ġborrow ing
q l
Ġd uck
ĠTH AT
Ġnew com
Ġl amb
g one
Ġp ets
Ġhighlight ing
ĠR B
g em
ighte ous
st ud
Ġbat ting
Ġstab bed
Con clusion
ind ust
Ġvit amin
Ġpar a
7 50
the ning
Ġf lick
Ġlot tery
Ġso y
Ġam ended
Ġl enses
ĠIns ider
Ġint ro
Ġgra pp
Ġathe ist
ĠFl int
Ġb ang
ĠT PP
aw i
Th us
ĠIndust rial
Ġplaint iffs
Ġar row
Ġobject ions
L L
ĠR ab
Ġcontest ed
Ġaffect ion
Ġback ward
author ized
Ġcomed ian
ĠC AN
intend ent
Ġext ensions
if a
ĠE ug
Ġm asters
Ġphenomen a
Ġout line
Ġprob able
ĠGl en
re lla
Cl oud
Ġro pe
Ġc ites
ish a
ĠArab s
ie ves
AR Y
Ġpen is
Ġth y
Ġj aw
Ġun equ
step s
Ġsub urb
Ġgorge ous
ĠCole man
uss ions
Sh ould
rig er
ĠIM F
ĠAsh ley
nd ra
Ġmot ive
Ġrev is
Ġrespond s
Ġc ater
Ġr h
Ġmain land
Ġtort ured
ourge ois
Ġpass words
ãģ Ĺ
Ġemb ry
Ġinter ventions
other apy
ĠH alo
Ġhelicop ters
Ġg ently
Ġmat rix
sec ret
Ġanaly tics
Ġpopul ist
Ġself ish
Ġadmit ting
Ġobs ession
ĠEll iott
c iously
ĠC e
Ġan them
ĠS ask
Ġcat aly
Ġp ills
Ġco h
Ġcontro llers
Ġstand point
ĠM ak
ct ed
ĠApp eals
Ġsum s
or o
ci ation
osp here
os oph
A ut
ot ine
ĠBur ke
R un
ĠCh a
in v
in burgh
Ġterrit orial
iet al
ĠPat rol
Ġware house
Ġexplos ives
Ġconf isc
Ġcast le
ĠD ad
ĠM our
Ġhur ricane
Ġ ..
ĠJ os
B erry
Ġun ified
ĠGT X
Ġconcent rate
Ġcry st
ump s
ĠP and
Ġfig uring
it ational
Ġcol ours
conf ig
ĠV irtual
ĠV el
Ġsyn chron
You ng
Ġlog ged
ĠInd igenous
ĠOff icial
i u
ut ral
Ġens ures
R P
ar ious
Ð¾Ð ²
D ev
F ixed
ĠIn g
ook ie
s um
Ġlog ging
Ġsymp athetic
Ġval ley
ib al
Ġprot agonist
Ġmin ors
M ass
Ġse as
AM Y
C ent
Ð ·
Ġo wed
ou x
Ġprivile ged
p al
Ġ* /
az ar
200 5
ĠDra ke
Ġeru pted
ĠN aval
ĠQu arter
igg ins
Ġcons oles
ĠOr d
Sub scribe
ĠApp ro
ĠE sc
uk a
Ġs atur
Ġide als
ĠTreat y
ĠL anc
Ġan ecd
ut ic
E p
Ġprosecut ed
ĠSt ream
de ep
Ġsad ly
Ġdes irable
Ġpsychiat ric
oint ed
Ġsurf aced
Ġemphas ize
ĠSC P
O k
is se
Ġrev ision
ant on
Ġpl ots
man y
p olitical
). <|
Ġwel coming
r ill
Th ink
ĠEm ma
d et
du llah
ĠU FO
Ġdef er
Ġfeed s
ĠGu ild
ĠâĢ ĭ
commun ications
Ġsoph omore
pe ace
Ġto pp
ĠF ocus
Off icials
Ġweek ends
ick er
Ġcan on
Ġstret ched
Ġmos qu
Ġsand wich
ĠPel osi
M arc
oc used
Ġ ×
ĠGo ing
Ġcal culation
ĠT ol
ĠSh o
year s
h n
ãģ «
14 0
S ix
ĠT at
ĠW end
Ġdistingu ished
Ġmag net
ract ed
ĠW alsh
Ġconstit utes
Ġincomp et
Ġconf ined
Ġg ru
Ġcorrid or
Ġselect ing
ĠRoberts on
Ġd ice
Ġen rich
m and
Ġintern ally
if le
ĠSim ply
In c
ĠN RA
Ġcorrect ed
Ġhack er
ĠJ agu
Ġpool s
Ġinform al
Ġsens ation
ri um
ĠM t
b ird
Ġgreet ed
ĠBapt ist
ĠL anguage
AN S
Ġat roc
at tering
Ġcool er
l ar
Ġpartners hips
Ġunder cover
M ult
Ġdefin itions
Ġprocess ors
Ġreact ed
ĠCirc le
Ġgau ge
ĠV ersion
Ġtraject ory
ĠRe b
ĠKn ights
Ġhome owners
Ġc el
ĠCon cer
op ath
Ġprov oc
bu ilt
Oct ober
Ġflood ed
ĠL opez
Ġvend or
ĠH od
Ġcompl ications
Ġjump s
ĠO mar
ĠR idge
Ġcont ests
Ġass ure
St op
Ġcur iosity
me ga
ĠF u
Ġla wn
ne ys
IT E
hol m
Ġfin ed
Ġconced ed
Ġsk ate
Ġball oon
Ġpedest rian
ĠB ot
ĠD ale
Ġhom eland
ĠLl oyd
in ian
Ġup rising
Ġo ceans
or p
Ġl od
. (
ĠS ak
com mon
Ġliber ation
stan bul
C BS
Ø ±
yl on
Ġcommand ers
w ald
Ġcompe lled
o qu
ind uced
Ġsyn c
Ġmax im
re v
Ġprop osing
ĠD iet
Ġdeb ated
Ġmach inery
Ġfair ness
Ġpropri etary
ĠCon n
ĠSt ay
ĠW A
ĠAdvent ure
Ġall ocated
Ġh ills
âĢĿ ),
Ġsh irts
Ġo ct
Ġreck less
P T
g mail
c ue
ĠNS W
ans on
ela ide
f a
Ġbuck et
ĠEth iop
Ġhar ness
ĠDub ai
hed ral
Ġarm ies
do ors
ĠGu ant
Ġcompr ised
Ġpres cribed
ĠHe ights
ĠAlz heimer
Ã ª
Ġsuccess es
Add ed
Ġsex y
Ġunlaw ful
f its
is ite
ĠÐ ¾
Ġcolor ful
Ġbe e
ĠInn ov
Ġpur ported
ĠC inem
ĠN early
Ġdelic ate
set t
ĠTrans it
B ob
he res
G I
od ied
Ġvar ies
Ġsing ular
Ġsl am
Ġair plane
Ġcell ular
Ġc ried
Ġwas hed
Pro ject
Ġstere otypes
Ġcho oses
iff e
ãģ §
ic ans
ĠC ensus
ĠWe instein
Ġnick name
Ġment or
Ġparad igm
ĠThe resa
ĠE M
ĠL amb
ĠS HA
C T
Ġub iqu
Ġnot ifications
Ġsuff ers
sp an
ĠMar ines
\ /
aze era
Ġstory telling
Ġprompt ly
Ġfemin ists
Ġth a
Ġqu eries
ĠGreg ory
Ġpl ural
Ġproject ion
Ġambul ance
h l
D an
Ġdebut ed
load ed
ĠAlf red
ĠF ine
ĠU T
Ġ19 00
Ġparad ox
ĠC li
rist ol
ĠW el
Ġconnect s
Ġafter ward
Ġbroadcast ing
c ision
Ġrecru its
Ġstrateg ist
respons ible
Ġten ants
ĠFal con
ĠSh a
Ġmor ally
ĠK on
Res earchers
ract ion
ĠH ood
ĠK ell
ĠN as
Ġexem pl
l ain
Ġha w
Ġcompet itions
Ġvar ieties
S aturday
ĠSch umer
Ġgri ev
Ġcl oth
az er
Ġvis ibility
p ark
Ġpot atoes
ĠT i
Ġtrans mitted
cr acy
Ġprest igious
Ġsen iors
Ġstun ned
ĠHar bor
ĠSol id
ĠPolit ico
Ġmethod ology
ĠD uterte
Ġmaneu ver
Ġperce ive
uff s
Ġvoc als
Ġg odd
|> "
S I
Ġcomment ators
Ġalarm ing
Ġgl oves
Ġeleg ant
it an
With in
che m
Ġobst acle
Ġout reach
re view
Ġmil estone
Ġmis dem
Ġstruct ured
M ORE
Ġco vert
asp berry
be cca
ĠT E
Ġpit chers
ustain able
Ġcolon ies
ĠTh om
ĠChampionship s
Ġsystem ic
Ġunpredict able
af ort
IC O
se at
ĠP le
Ġgr an
Ġfool ish
Al ong
Ġweigh ing
ĠE arl
Ġsw orn
Ġhasht ag
Ġsm ok
Ġb acon
ĠB io
Ġver se
Ġcr ush
Ġyell ing
Ġmax imize
Ġhost age
ov ak
ĠLib yan
Ġexclus ion
Ġ1 11
Ġhe ck
IN T
L ive
ar ak
Ġbless ing
Ġignor ant
ld a
ĠPost ed
vert ising
Ġrom ance
Ġrenown ed
t ag
Ġinsure rs
D am
ĠM aterial
ĠN FC
gg er
ĠImp act
ĠR BI
it ches
W ant
ĠOr acle
Ġlo vers
p c
Ġinterrupt ed
at ivity
ĠF ortunately
Ġconsider ations
Ġimp ly
Ġmin us
ri ents
Th ings
Ġteach ings
ĠBou levard
m ajor
Ġimpro ves
Ġgar lic
im en
Ġhum ili
ĠC able
aun ting
Ġinfer ior
Ġtime ly
Ġl ining
Ġrel ates
Ġhold er
iv ia
Ġbrut ality
" [
Ġunsuccess ful
Ġbarg ain
Ġdest inations
ocaly pse
Ġl ament
Ġprem ises
Ġ __
as se
ry s
Ġacceler ate
d id
ownt own
Ġp ixel
Ġfin ishes
Ġbund le
ĠCharg ers
Ġe Bay
Ġbr acket
Ġpreval ence
Ġan nex
ĠC ele
ĠB rent
Ġk its
Ġincon ven
Ġvulner abilities
N or
Ġcr ises
Ġp ap
Ġs ore
ĠD h
Ġneighbour s
m ut
ĠT roy
ian i
ĠB ever
Ġdiscover ing
n ull
Ġworks hop
Ġl ur
Ġout law
Ġuniform s
ĠM oto
Republic an
ĠLear ning
ĠWin ston
ĠF ear
ĠBro ck
Ġmer ger
ĠPar ad
f ax
ag ne
ĠLGBT Q
Ġexceed ed
Ġst ew
it ives
ĠT weet
Ġr ust
Ġdown ward
ĠAut om
ĠL ag
Ġprivile ges
Ġdiscuss es
Ġexc av
ĠSt age
J ul
Sh ow
ĠMor rison
Ġphr ases
Ġembarrass ed
ĠGonz alez
ĠGlas gow
Ġappet ite
re ra
Ġel imination
Ġball istic
ĠJ upiter
ri ad
ang led
Ġ" [
! ).
ĠI van
Ġtoler ate
ĠBlu etooth
Ġunw anted
Ġav iation
!! !!
Ġgrad uation
Ġbrows ers
ĠH ab
em ption
Sep tember
it as
Ġtw isted
Ġmar ched
ĠX P
O per
b ps
ĠBe gin
ĠThe ater
ĠL ux
Ġcle arer
ĠAven gers
c in
ĠH app
Ġsol ic
Ġchampionship s
B ern
Ġenjoy able
Ġaccept s
id av
red ited
ĠL iqu
Ġper secution
Ġrecogn izing
Ġg ad
Ġmis ogyn
ĠW ake
Ġgun man
x on
al iation
Ġa kin
Ġbl aming
Ġ10 80
Ġspecific s
Ġshut tle
ol ith
Ġbed s
Ġwrong doing
Ġresist ant
b ard
o ids
og s
Ġtyp ing
Ġdis respect
n ings
Ġa u
Ġappropri ately
ĠPri x
com fort
ĠSer b
ĠA verage
Ġcon ceived
Ġvol can
ĠGOOD MAN
Ġl end
ĠSpr int
ĠF ighter
ĠReyn olds
ĠU pper
Ġvac ant
c ot
Ġre per
Ġcul min
oci ated
Ġb ore
Cong ress
ĠP OL
Ġdis abilities
Jo in
Ġdesp air
ĠJ eb
Ġric hest
ĠFil ip
an ity
ĠM ik
ĠN ode
Ġextrem ism
âĢĿ ;
ĠE rik
ard on
H op
Ġnomine es
Ġthought ful
Ġ> >>
m g
R edd
Ġnotice able
ĠIns urance
int o
C ourt
Ġpip es
Ġingred ient
at ism
Ġded ication
with out
Ġdiam ond
ĠM ets
Ġcorner back
ĠSat urn
work ers
Ġthr one
ä º
ĠD ana
] ]
Ġtw ent
Ġright ly
Ġnum er
in yl
ric anes
Ġprohib it
Ġid iot
Ġperform ers
Ġadvoc ating
ĠM aps
Ġcondition ing
Ġ} ,
L ead
ev al
Ġtun nels
t z
Ġex otic
Ġpr ag
Ġfuel ed
An n
ins ky
Ġan at
ĠC el
Ġrep ay
J S
Ġmeth ane
Ġste alth
U TC
ĠTurn bull
U RE
Ġthe sis
Ġfr acking
Ġsens es
OU T
th ouse
ĠÂ «
Ġcritic ize
Ġt il
ĠT ap
ĠL ogan
Ġwar rior
Ġl over
Ġentire ty
ra ve
Ġdetail ing
ĠI gn
Ġpl asma
Ġexem pt
Ġdisplay ing
ĠTrans port
Ġout field
Ġartif acts
Republic ans
ex cept
udd enly
ĠRep orts
Ġg rit
ĠÐ ¸
ci pl
nder ing
Ġun just
achel or
Ġsing les
p aper
ine ment
gu ided
F ind
Ġrecogn izes
ĠScient ology
ĠV o
ĠFre eman
C amp
Ġkn ocking
ish ment
Ġbar red
Ġloc ks
ĠBas ically
~~ ~~
10 5
Ġdis asters
ĠLeg ends
ion age
Ġprejud ice
Ġinflu x
b led
C ode
ĠSing le
Ġhead set
Ġmet adata
Ġadop ting
Ġmer its
isp here
ĠF a
Ġmar athon
red dit
ic able
Ġacknowled ges
Ġfur ious
B Y
ic ularly
ĠCont act
ĠU g
ãĤ ĭ
ĠSadd am
Ġsur g
Ġrest art
Ġp ixels
Ġmer cy
vas ive
Ġstory line
Ġf ren
ĠPC s
Ġtr aces
Ġcor tex
Ġw ary
sh irts
Ġwip ed
Ġre dd
ĠEd inburgh
li ber
Ġdil ig
ĠB uc
Ġband width
ĠPers ian
Ġpun ct
Ġv ivid
Ġinaccur ate
Ġl ag
oc o
Ġinst itute
al ion
Ġalt itude
Ġillust ration
p arent
Ġoff ences
ĠFrank en
Ġman kind
Ġatt ain
Ġdet r
Ġoccup y
ĠU nd
ĠStart ing
200 4
cent er
M el
w ere
Ġde er
Get ting
Ġc ows
Ġpreval ent
ĠL ith
ãģ ¦
he ed
Ġ ë
ĠG y
Ġround ed
Ġprolong ed
ind a
G H
ĠKn icks
Ġbl essed
Ġexem ption
Ġinaug ural
ĠFR OM
A round
Ġv est
Ġgl uc
ram id
Ġsett lers
Ġab st
D aniel
F in
ĠR ange
br and
Pac ific
Ġcoc onut
ĠBurn s
ĠMill enn
Ġd y
Ġfreedom s
ch anging
Ġseason al
ĠP os
Ġph osph
Th omas
E lect
US E
Ġsm arter
b usiness
ĠAud io
ĠA RE
ĠSU V
Ġindu ced
in el
ĠPr adesh
Ġunst able
Ġwarr ants
Ġp ave
Ġref eree
Ġcar pet
Ġcap ita
Ġer ad
Ġexped ition
Ġb ourgeois
Al most
Ġf ist
Ġgr ind
Ġmot ives
Ġaggreg ate
ĠB uch
ĠDev il
D en
Ġprogram mes
ĠPer l
ĠEmb assy
Ġaccommod ation
Ġc ite
atin um
Ġh over
Ġcomb ines
ĠFif th
> </
! âĢĻ
ĠSt o
ĠSN P
viol ent
oy s
c ourse
ĠC aval
g rowing
ĠR ift
For ce
ĠSpe aking
Ġst ems
Ġun m
ent e
V e
Ġlisten ers
Ġt apped
com plete
Ġ19 44
Ġdefe ating
Ex per
Ġdiet ary
Ġgr in
Ġcon qu
k ara
Ġbenef ited
Ġmir acle
ab we
Ġprogram mers
Ġcoun cill
Ġcr ust
Ġenthusi asts
ĠHait i
ĠI CE
p i
V ery
ĠR hod
an ed
ĠA A
ĠT C
Ġrecomm ends
C rit
c ig
f light
ing ham
ĠW izards
Ġdef ect
ĠD ash
port ing
Ġbureau cracy
Ġst yl
Ġsanct uary
Ġcriticism s
Ġhous ed
Ġsymp ath
Ġrig orous
op hers
im ag
ĠN ak
ĠE isen
Rec ently
Ġreb oot
Ġconcess ions
ick y
Ġpaper work
Ġprost itution
am el
Ġupd ating
Ġsne ak
ic ates
Ġorche st
Ġbom ber
ĠProgress ive
) -
Ġstatist ically
Ġunf amiliar
sequ ently
Pr int
Ġlength s
Ġpred ators
ĠS ales
Ġun a
Ġdet on
ĠBas ic
ren ched
Ġru ined
Ġme ga
er k
ry pt
Ġfor fe
ĠStar bucks
R ock
ĠHy per
in qu
W R
Ġd ilem
Ġchar itable
Ġhost ility
ĠSch midt
Ġheav ier
imb abwe
ount ain
ĠElect ronic
av an
ĠR uth
ĠK ob
Ġuns afe
ĠJul ia
ĠI stanbul
Ġphilos opher
ess ors
ched el
Ġposition ing
ur st
Phot os
Ġcoordin ate
ĠH orse
ĠC ad
Ġst unt
i ov
Ġter rific
Ġreb uilding
ĠRoll ing
ĠC ork
Ġins ider
Ġden ounced
ĠEver ton
ĠL ed
Fr iday
ĠÃ ®
Ġacqu iring
spe aking
Nob ody
ixt y
ĠE ST
B D
lic t
Ġter ribly
ĠGit Hub
P o
Ġthere after
Ġpers pectives
Ġsimpl icity
ĠWH O
Ġcrack ed
Ġforb idden
ĠN J
ight y
ĠSu z
ĠSe oul
ĠAng els
âĢ ²
Ġwh it
g ie
Ġport al
ĠO kay
ĠO ri
Ġl aps
ond o
Ġsuper visor
ill es
ĠTim othy
ĠPartners hip
Ġf usion
Ġillust rates
Ġreferen ced
Ġj ournals
ĠSe bast
Be yond
Ġsoc io
Ġmult ip
place ment
ipp le
Ġobject ion
ĠO t
f act
Ġpl at
ĠL P
ist ical
Ġsh ade
ãģ ¨
ĠT ournament
ĠOw en
Ġinfringe ment
Ġoff ended
cast ing
ĠMor oc
Ġs perm
so ver
Ġbig ot
rest rial
ĠRom ania
Ġsch izophren
ĠCitiz en
ĠA V
Val ue
ters on
Ġanaly zing
Ġtr action
Ġintrodu ces
Ġrequest ing
Ġantibiot ics
or ie
Ġj ungle
ograph ics
Ġident ifies
Mc C
ĠSher man
M ex
Ġsl og
av in
Ġ20 30
B uild
ire ction
Ġdiplom acy
Ġas c
ĠE N
ĠSpace X
Ġch ill
ĠLe Bron
bl ood
Ġintention al
Ġborrow ed
pr im
T ech
rat ives
ish ops
ĠNot re
ĠS ame
ĠPrinc eton
fund ing
Ġskept icism
Bel ow
Ġbro ker
Ġsuper f
Ġcert ification
Add itionally
l ived
Ġaff idav
en berg
keep ers
ĠLind a
Ġvol atile
bl ue
ĠVictor ian
Ġfright ening
ĠMoh amed
it us
Ġunch anged
v ity
ĠScient ists
p atch
est ine
Ġrec laim
Ġsuper b
ĠM az
t v
ĠAl ways
Ġar che
Ġreg ain
Ġton nes
et ed
oles ter
ĠP ist
Ġso ap
Ġfat igue
ĠPoke mon
Ġshe lls
Ġbet ting
Ġdetect ives
H R
ng th
ĠMa o
N OT
Ġend ured
ĠC lear
ĠBet a
ĠPR O
12 3
ĠS tern
Ġv ine
af ia
ĠR are
ĠChe v
ĠExper ience
Ġindic ators
ĠAub urn
ĠJ ill
Ø§ ÙĦ
ĠL iter
Ġvis as
Ġsh red
Ġterr ified
W il
ress es
AN K
Ġhealth ier
Ġfav ors
Ġabsor bed
gg ie
ia o
Pl an
ĠAust rian
Ġrec ons
Ġvir uses
Ġcooper ative
ĠCourt esy
ĠC ities
OW N
us ers
Ġrestrict ion
% ).
Ġg le
ie u
Ġ11 5
T urn
Ġclean er
ay an
ern ame
Ġcirc ular
ĠLet ter
ĠMurd och
sh ould
Ġmir rors
b ial
ĠV ince
Ġcap ac
Ġlower ing
itness es
Ġche ating
ĠDec l
Ġinterrog ation
ĠIS IL
er m
Ġbron ze
Ù ħ
ĠM ig
ĠH i
Ġv intage
Ġpe cul
ĠD ani
Ġsh aping
ed in
ĠCl are
ĠBr is
av ior
ĠAb dullah
Ġund is
Ġ19 41
Ġback yard
om ical
Ġref riger
he e
Ġsubmar ine
Ġaccess ories
ĠPl ant
Ġaut op
Ġexclud e
spons ored
Ġ17 0
Ġunus ually
ĠN L
Ġph ases
H i
on so
op ers
Ġn ortheast
ac s
act ed
C y
P ay
Ġbe ard
P rodu
Ġunder going
Ġtack ling
ĠPerson al
Ġemail ed
ink le
Ġfree zing
let te
Ġnational s
Ġcy l
l ings
Ġun real
Ġcell phone
Ġmin eral
Ġtake over
Ġhorm one
Ġ- --
ĠKum ar
Ġd od
Ġend uring
ĠDay ton
Ġsub po
Ġb ast
ĠM iles
ĠN ice
Ġl av
Ġce ment
ĠRich ards
anc ers
Ġdevast ated
Ġsquee ze
gu ards
Ġfilm maker
Ġgoal keeper
ĠSask at
et c
ices ter
Ġbrand ed
ins pired
Ġadvoc ated
Ġstr ains
We ek
o an
ãģ Ł
19 90
Ġbeaut ifully
ĠJul ie
Ġcommunic ating
ĠAnn ual
Ġinv iting
u ador
ĠR ugby
ĠSp art
ĠFried man
ign ment
Ġpsych ologist
Ġfact o
Ġn avy
âĶĢâĶĢ âĶĢâĶĢ
Ġint ric
Ġproud ly
um i
Ġpos ing
Ġhy ster
ĠB urg
Ġtour ing
\ -
w ave
ĠC raft
Ġh orn
Ġgovern ors
Ġref ined
ĠCelt ics
Ġalleg ation
Ġmark er
ick ers
Ġenter prises
Ġdo i
Ġback drop
Ġmet als
mod ern
Ġswit ches
Ġmodel ing
Ġhapp ier
Ġst ip
ĠSim mons
ĠNY PD
s il
Ġcourt room
ot ers
Ġpal m
Ġ24 0
ĠD ot
ett ings
Res p
Ġimper ative
Ġsc aling
Ġexp on
Ġhand c
Brit ish
ĠCore y
ĠR abb
Im agine
or f
Ġins ulin
ev ent
Ġrespons ive
ĠEl ite
Ġinterf aces
Ġsn apped
ĠEvery body
Ġannounce ments
we ather
oss ibly
ĠMe yer
bal ance
Ġdeter mines
Ġarch ives
B P
ar ium
ĠE instein
Ġbal ancing
Ġstretch ing
K en
Ġwa ist
ĠCry pt
Ġcontam ination
K im
Ġ} );
pect or
Ġret aliation
pl ates
Ġreiter ated
y ers
Ġp ulse
Ġrival ry
Ġundert aken
Ġa rose
Ġth under
Ġrecept or
Ġdevelop s
Ġs oda
Ġf ost
Ġcha otic
fol k
Ġ19 47
ĠHaw ks
ĠDO J
Ġdepend ence
s ided
Ġar senal
S ave
ĠL ay
B T
P ict
ĠON E
m ult
Ġst ellar
Ġinf ants
Ġtravel ers
Ġauthent ication
Ġp and
Ġhard core
Ġengine ered
w en
Ġmerchand ise
Ġwas hing
Ġshort s
Ġattract ing
b ling
ump ing
Ġp ine
ĠH arm
Ġobserv ing
Ġgall ons
Ġimp air
Ġdece ased
le ys
Ġconfir ming
H as
ĠC atherine
rec ord
Ġje ans
ĠBah rain
Ġcritic izing
Ġagree ing
Ġcompens ate
Ġappar atus
Ġpredict ing
ĠT W
squ are
Ġrev ival
Ġre ef
Ġspecial ists
Ġinnov ations
Ġfl ame
20 18
ĠV ision
ĠPan ama
Ġanticip ate
Ġposs essed
Ġvis ually
ount y
" ]
E ric
Ġele ven
ĠGr ad
Ġpen al
Ġey eb
Ġl aughter
Ġdeleg ate
ĠWalk ing
be h
ster dam
b uster
ill on
Ġep it
ĠTill erson
ax ies
S ar
K evin
Ġopio id
Ġrest ing
ĠCo ver
Ġcore s
ĠMap le
Ġw ipe
ĠUlt imately
w s
ĠGil bert
Ġdistract ion
Ġpot ato
lu x
Ġ( .
ĠSc ore
200 1
ĠVal ve
Ġbroadc aster
Ġwar mer
all ah
Ġaut umn
Ġstar red
ì Ŀ
Ġt ant
ed u
Ġclear ance
ĠUs ers
Ġkidn apped
Ġwar riors
Ġpri zes
18 0
Ġburn s
Ġs idelines
if ted
Add itional
Ġreg imes
ĠR apt
Other s
Ġdom ains
Ġdump ed
Ġur gency
Ġend ure
Ġhypot hes
ãģ ª
Ġec ological
Le ague
ĠExpl orer
in ters
ĠCent ers
duct ed
ĠSim ple
Wind ows
Ġconcept ion
Ġo live
Ġbull shit
ĠMan afort
Ġvisit or
Ġnegative ly
Ġcontract ed
amm ad
ĠH erman
ĠDam age
! '
Ch ief
Ġr im
ĠPro duction
Ġtheir s
Ġcapt ures
Ġselect ive
Ġb ilateral
Ġradio active
S W
Ġro de
Ġdub ious
R ay
land er
ĠBrend an
Ġcateg or
Ġpr inter
et itive
ac a
ĠP E
Ġbl ows
Ġreact ors
ort ium
ĠHay es
Ġvan illa
ĠS hip
Ġnodd ed
Ġrad ically
ĠMerc ury
Ġrep airs
Ġseiz ure
ĠPen insula
ĠH ogan
or ian
Ġinst ability
Ġdepend ency
Ġunbeliev able
mo il
oster one
I AL
Ġlog in
Ġexplos ions
Ġsever ity
Ġvolunt arily
Ġst al
op ed
// //
Ġill icit
ĠCraw ford
abl ished
pl aced
ien cies
Ġque er
Ġm arsh
as is
Ġshel ters
Ġastronaut s
Ġscreens hot
pro ject
ĠLeg acy
Ġpe an
ans ing
ĠGr ass
ĠDet ails
Ġcontam inated
ĠR iley
Ġobser ver
Ġgood ness
ĠCom ment
Ñ ħ
ĠC ards
John son
ok a
Ġs ights
Ġprogram mer
Ġlone ly
Up on
K it
Ġth wart
os er
verse ly
Ġacc use
ĠCris is
ĠEmir ates
ĠG ross
Ġassess ments
ĠB ristol
Ġcr unch
Ġside walk
Ġsubsid iary
Ġcontent ious
ĠâĨ Ĵ
Bit coin
ĠG ir
c ro
Ä «
Ġcrypt o
ĠPl aza
Ġh ollow
Ġthe rape
Ġprop he
Ad am
ĠS ah
ĠCon way
Ġd well
Redd it
Ġpal ace
ff iti
Ġfre ak
Ġpath way
Ġstret ches
health y
Ġb isexual
ĠF F
p arents
Ġrob otic
Ġhun ter
Ġdem ise
OL L
ĠH ernandez
ĠN an
Ġdisadvant age
Ġpour ing
Ġshut ting
Ġrig id
H ard
m ass
Ġf og
ĠHon or
ĠSp icer
More over
ĠVe h
ĠRou te
Ġdirect ive
200 3
N ovember
Ġredu nd
ĠSch ultz
Ġrese mble
Ġj ealous
Ġaw aken
w ic
Ġto e
ĠJ et
ĠBru ins
U r
ĠS end
Y ear
Ġre he
H uman
ore st
ĠFr ame
Ġcompet ent
Ġcook ie
Ġf ra
Ġtransl ates
ĠLe o
Ġempir ical
f ed
ĠVi enna
ĠS aw
ĠE L
Ġru ins
Ġmetaph or
Ġd iving
Ġple as
Ġv om
Ġs om
Ġb end
Ġs ack
Ġâ ī
Ġwithd rew
ĠT M
ĠSh ane
D O
s ch
ĠP ain
Ġsurpr ises
Ġsell er
Ġren amed
Ä Ł
Ġlau nd
ĠSu ccess
ĠW u
ple asant
ĠAndre a
isc her
ĠBl izzard
Ar ch
I ll
c led
Ġchar ities
Ġex terior
ĠRe play
Ġcost ing
b ag
ĠJed i
Ġr anged
Ġrelent less
ott esville
Ġrem ed
Ġineff ective
Ġpar an
Ġd ull
ĠC rist
Ġins erted
ĠF lickr
Ġdo omed
Ġ ï
rah im
oun ge
Ġchar m
ĠBren nan
ĠD ell
Ġtr aced
Ġbr ig
Ġdig its
ĠInvest ment
ĠResp ons
Ð ¹
IS A
Ġreminis cent
t imes
ĠAP Is
ĠNe g
st atic
ĠAd elaide
Ġinto x
ĠE gg
ĠInvest igation
Ġle aking
Ġle mon
Ġown ing
Am azon
ant ry
P ublished
ĠJ azz
Ġl ou
Ġpo pped
Ġpres ervation
ĠChe ney
Ġs rc
ĠReg ardless
Ġacceler ated
k owski
Ġmod ifications
Ġall ocation
Ġa ven
Ġdict ator
abul ary
em a
pl anes
Ġt am
Ġcont end
Ġviol ates
Ġher b
Ġjuven ile
ĠFood s
Ġdownload s
Ġrepl icate
ĠS oph
ãģ ¯
Ġpen cil
Ġp ensions
Ġpres erving
Ġdepend encies
De cember
Ġpig s
Ġnot ices
S F
w ife
Ġreward ing
Ġmerch ants
elect ed
it em
OR Y
Ġacceler ation
Ġappoint ments
Ġfeas ible
ĠC opy
V ol
ĠB un
Ġrad ius
c ity
at ured
^ {
Ġm asks
Ġtw ins
ĠWeb b
ĠTh an
S omething
B esides
ĠL ance
Ġye ast
a ft
in vest
Ġatt achment
,âĢĻ âĢĿ
ĠBeh ind
Ġout dated
Ġdiscont in
Ġlaugh s
Ġm ast
ident ally
Ch inese
T L
Ġup held
Ġsp ouse
Ġprosec ute
C raft
J ones
e g
Ġpo inter
Ġr apper
Ġposs essions
Ġv andal
ĠObserv atory
S B
Ġde af
Ġ 000
Ġrad i
any on
) ?
Ġm s
Ġn urt
L ou
r t
F OR
ĠS kin
ĠF act
Ġiron ic
Ġ195 9
D ig
Ġat oms
ĠJud iciary
ĠAr row
Ġup wards
m atch
Ġret ros
ĠKush ner
ĠBr anch
ĠPir ates
Ð ¿
Ġenroll ment
f alls
Ġin ad
ess a
Ġneed le
Ġoper a
Ġnegoti ation
ĠR F
ĠP TS
be e
H E
Ġveget able
Ġspir al
Ġembr acing
G roup
ĠE lementary
ĠT aking
Ġprim itive
D i
Ġtrain er
in ational
c ould
Ġcont ributes
Ġres olutions
Ġdis se
Ġfest ivals
E ver
h ops
aw ays
Ġfert ility
Ġtoss ed
Ġd un
ĠT rent
ĠBeat les
W in
Ġmicro phone
Ġshr ink
Ġv apor
Ġ10 2
S und
ate l
Ġbomb ings
Ġha iled
Ġle aning
ĠK in
Ġâ Ķ
Ġcongress man
Ġ& &
Ġshoot s
Ġhun ters
Ġte asp
sec ure
Ġv inyl
Ġ18 00
ĠZ ucker
v ideo
own s
Ġre jo
Ġal lev
Ġmer ge
ro ot
Ġcop ied
ĠPro du
( $
F inal
Ġp ier
Ġall ied
ett i
Ġcost umes
ob ject
ĠSpe cifically
Ġforecast s
Ġmod ification
Ġwithd rawn
M ur
bor o
Ġiter ation
st ad
Ġmechan ic
Î ¹
ĠVol ume
Bet ween
ĠB orn
ĠDis covery
ĠDev ils
Ġmyth s
Ġap ost
Å ¾
Ġstamp s
iv able
Ġ10 4
,âĢĻ âĢĻ
c f
Ġch amp
ĠConserv ation
m ails
st atus
P E
ĠA be
Ġhop eless
Ġdimin ished
Ġdiscover ies
Ġdisappear ance
ĠMan uel
omed ay
Ġch uck
st y
ĠCom edy
Ġinspect or
Ġt ally
Supp ort
ĠK iss
Ġ Ã©
Ġe man
ĠG ul
ven ant
Ġper tain
J ew
Ġaccess ing
ĠMe et
AC A
Ġanticip ation
Ġcos mic
Ġvolt age
ret urn
Ġv ault
Ġdoub les
ari at
D eb
r h
Ġuns ure
V ict
ĠProf essional
Ġr uth
ile aks
Ġsmooth ly
s rc
he id
Ġout spoken
ĠRock ets
A BC
Ġtur moil
ĠSter ling
Ġg aze
ush i
ent ric
Ġl b
Ġsal ad
ĠMir ror
Ġgif ted
c am
uff er
Ġmy riad
Ġfr amed
Ġmamm als
ĠTw enty
Ġo lig
t ier
Ġathe ists
Ġinter val
Ġalleg ing
Ġfore front
Ġoccur rence
Ġpod ium
larg est
Ġairst rikes
f alse
ĠZ imbabwe
ĠAct ive
Ġoffs pring
Ġsex ist
Ġextract ed
ĠAli en
Ġfore nsic
ĠMem ory
ĠM ead
Ġmilit ias
Ġvalid ity
ĠWhats App
Ġadequ ately
le aning
ĠGe off
E nt
ph oto
Ġt outed
ĠSouth west
ĠC ord
ĠAd obe
ĠUs ually
ĠMount ains
d in
IS S
ĠNational s
Ġna ive
ĠF M
Ġnar ratives
ĠB oss
Ġtrig gers
Ġcompat ibility
Ġintr ins
f ired
ĠTr ack
Ġcan cell
Ġneuro log
Ġcelebr ations
read ing
ĠQual ity
ĠD uty
Ġext rad
c ified
d oc
ĠMon ica
am ic
Le vel
Ġjud ging
re z
Ġr ansom
Ġche ek
ĠTro phy
Ġper ceptions
Ġstim ulation
N ick
ĠBeng als
Ġe cc
L in
Ġhe ft
Ġground ed
ĠJo in
Dem ocrats
Ġimm ort
ĠSim ilar
Ġcr ashing
Ġcreep y
Ġelev ator
ĠRec ently
an ol
Ġpret ending
ot on
ĠB irth
iss an
ot he
Ġsle pt
Ġaster oid
be fore
ĠFl ag
M a
Ġw ires
c ross
l ins
our ing
ĠCle arly
Ġexch anged
Ġadoles c
En ter
cre ate
Ġnarrow ly
Ġun ite
Ġmark ers
ĠTer rit
AT A
part isan
Ġcollabor ative
Ġsuccess ion
Semit ism
ĠB ass
Ġwholes ale
ĠP ars
over ty
d oes
ĠAl ger
J osh
Ġstreng thening
Ġjust ices
Ġclean ed
ĠBald win
ĠD LC
Ġtop s
Ġacknowled ging
Islam ic
ustom ed
Ġbol ster
Ult imately
Ġplace bo
Pr ime
Ġretrie ve
Ġun armed
Ġnorth west
ucc i
ĠH ond
ĠB ert
ĠTr ain
Ġ á
ud s
ĠKenn eth
is ure
Ġemploy s
ĠScient ific
ĠLeban ese
ĠEx cept
Ġsuper vision
ĠG rowth
Ġsustain ability
List en
Ġind oor
Ġsuper st
Ġ19 39
Ġind o
w ire
Ġperfect ion
W ow
Cre ate
Ġe ject
ĠK oh
ĠBudd ha
ĠL ud
ĠSky pe
ĠCoff ee
Ġcur se
Ġdom ination
Ġcomp ares
P y
f ight
Ġcan s
Ġrefres hing
Ġspe cially
Through out
Ġmeaning less
Ġnut rients
b ands
Ġash amed
Ġlun ar
Ġdec ay
ĠCom ing
Ġdepth s
C ustom
Ġevac uated
D F
ors che
Ġrel iance
Ġb idding
ĠFl oyd
Ġdisg usting
Ġdis charge
ĠCurt is
Ġpredict s
Ġhypot hetical
Ġ4 50
ĠMy ster
ĠBeng al
Ġh alls
ors i
Ġdecentral ized
. ;
ĠB TC
ĠK ot
Ġsusp end
Ġsect arian
11 5
L ittle
Ġoverl ap
Ġhonest y
c ulture
od s
Ġk in
Ġbl asted
Ġvers atile
ĠA part
Ġdefe ats
Ġleft ist
els en
Ġ2 20
ĠN ike
Ġsc andals
Se ason
ĠF resh
Ġr ack
Ġresearch ing
Ġregul ator
Ġperpet rators
L ess
Un iversity
ĠK em
Ġho ax
Ġbe aches
ul atory
Ġpo orest
ĠP v
ĠYOU R
.. .<|
ve red
Ġso ber
ĠC ros
art en
ĠZ oo
Ġfrequ encies
he ard
Ġconcept ual
Ġgrant ing
ĠR ew
Ġexp ired
ĠMons anto
T em
ĠRe ce
ĠKurd istan
Ġpr ince
Ġde ported
Ġfut ures
Ġanarch ist
ĠBuzz Feed
ĠJackson ville
ĠUlt ra
iv o
Ġfirm ware
Ġnight club
Ġf rog
ĠÂ ·
st ru
ĠJ SON
M aking
ĠZimmer man
ĠO val
dog s
ĠE lder
ĠAn cient
ĠTechn ologies
Ġparent al
Ġgovern ed
ĠEv olution
Ġlo oming
count ry
Ġd os
Ġsign aling
Ġtang ible
Ġrele vance
C ard
ac ial
W estern
ĠAbb as
Ġramp ant
ĠJ ur
Ġturn over
Ġid ol
Ġto dd
ĠCh oice
Ġdecl ines
Ġeval uating
Ġun cover
Ġsp ine
Ġlivest ock
ĠF ernand
Ġrecy cling
c oll
Ġcruel ty
Ġst ing
A cc
Ġm ant
Jan uary
h agen
ĠB og
Ġjudge ment
Ġextract ion
Ġp ent
Ġbit coins
Ġdism ant
ass is
Ġer r
Ġembarrass ment
Ġrep s
ĠBris bane
is ans
H am
Ġg it
te chn
ĠAny thing
ĠHel en
Ġaccum ulated
L ee
l n
ĠB le
ĠLe ad
Ġrelie ved
Ġbi ography
ĠCamb od
oust ic
Ġfalse ly
ĠCh arter
Yes terday
Ġfilm makers
C redit
Ġg y
ĠEc uador
F rench
Ġcorrespond ence
Ġstake holders
Ġgl orious
ĠB il
Ġtax ation
ĠBlack Berry
c od
ĠCan ucks
ĠRes ults
ĠB T
Ġsex ism
ĠMid west
r ance
Ġfrag ments
Ġunder went
ĠMcC l
ub a
Ġstat istic
Ġair lines
Ġdiplom at
Ġreinfor ced
ol ia
Ġwe ights
right s
Ġreal ization
ĠCan on
Sub ject
Ġpart ition
ĠEv ents
æ ľ
Ġyell ed
Ġhook ed
Ġdistract ed
Ġw anna
Ġcl o
ĠCr us
ĠV P
ĠCon c
ĠE asy
Ġre print
ob ic
Ġsuper market
ĠViol ence
ĠHe ath
Ġe ch
Ġresemb les
s cient
ex pl
Ġanal ogy
Ġsh iny
St r
P rior
Ġgl oss
Ġstuff ed
Ġconstitu ency
Ġsound ing
reg or
Ġthe ology
ul ed
Ġdivor ced
ĠUp dated
ĠJud a
ĠIr ving
o it
secut ors
Ġmem br
ĠB ened
Ġout raged
Ġbom bers
ĠH ag
l ia
in as
Ġindirect ly
Ġdest abil
g age
ĠC ertainly
Ġj oked
ak is
Ġbr ass
Ġnom inations
Ġbur ial
Å Ł
are ndra
ĠSh ot
board ing
Ġtr ilogy
Ġg room
ĠIn qu
ĠAnd ers
ĠInd ividual
ĠIS Ps
Ġs ung
,' "
Ġfundra iser
ĠLa unch
ĠCharl ottesville
ĠB row
Ġbu ys
ĠS ig
met ry
ÑĤ Ð¾
Ġs outheast
ĠSalv ador
ĠN est
ĠPer fect
vention al
t urn
12 8
10 4
Ġgl ow
id ate
Ġdr ums
ring ton
ĠPlan ning
Ġheight ened
Ġcomp uls
I Z
Ġoverth row
ĠT ah
Ġillness es
Ġfraud ulent
Ġsell ers
id able
Ġkidn apping
I r
Ġgoal t
Ġutil ized
Ġbelie vers
re ne
ĠF ans
Ġcho pped
lant ic
Ġ19 42
En large
ĠL il
Ġindef initely
ba um
Ġreconst ruction
â ĺ
arr ison
it ating
im ation
ĠDar ren
Ġac ids
Ġcur tain
th y
Ġsuscept ible
ĠT ier
Ġir rational
Ġt in
Ġmel ting
Ġs ang
Further more
Th ird
Ġsurround ings
ĠG ur
Ġh ats
Ġcease fire
a qu
Ġt apes
Ġmiser able
Ġlike wise
ĠAR M
Scient ists
Ġst acked
Top ics
200 2
Ġpop e
Ġur ine
Ġmiss es
j ah
O ld
F oot
n umber
em y
Ġobs ess
ĠS V
the med
rict ed
On line
Ġpro claim
Ġcatast rophe
pl aces
h ig
Ġst oring
lud es
ĠMot ion
ĠV ers
Ġunique ly
mark ed
Ġremark ed
ĠAng ular
Ġlapt ops
R om
10 2
AN G
ĠRh ode
ĠC er
Ġchar ism
Ġspat ial
ĠR S
Ġcouncil s
Ġcom r
Ġhe ights
Ġex ile
Î µ
Ġinqu iries
Ġf aint
ĠDes ert
Ġ195 8
Ġcomment ator
Ġrec urring
qu arter
Ġ\ (
ĠGen esis
Feb ruary
olester ol
em ade
ĠW it
g ae
Ġj ugg
omet ric
ĠPan el
B rian
Ġsur geon
Ġende av
a verage
Ġsuper natural
ĠD ucks
ĠJ azeera
Ġshr inking
F ederal
um bs
B at
ĠJohn s
f ill
Ġdisp ers
Ġun pleasant
Ġdis like
Ġcr acks
st ill
ĠIll ust
o il
ĠBl ade
Ġtub es
ĠProtest ant
ĠSchne ider
ĠAd mir
ĠG iant
Ġan th
c irc
ĠO g
Ġauthor ization
Ġdest ined
Ġlif elong
S u
A ri
ĠN ate
S ervice
ĠC E
Ġoper atives
ĠLike wise
ood y
ex per
ĠEx xon
B rad
W ater
Ch icago
Ġdisagree ment
ush ima
Ġdifferent ial
ĠIm port
Ġvalid ation
D ist
Ġgal axies
Ġelig ibility
Ġwith hold
ul ators
Ġoff ender
ĠCh in
Ġch lor
ĠKind le
Ġcont enders
ĠWy oming
IN D
Ġovert urned
ĠC anyon
import ant
a unch
Ġreg ression
Ġphotograp hed
Ġmit igate
Mart in
Ġb unk
ĠG ri
ĠAr s
pl er
Ġmilit ar
Ġmad ness
Ġsurviv or
Ġpund its
Ġdesign ation
S n
Ġsc oop
lin er
G G
ĠW er
ĠSaf e
Ġ ï¿½
ig ators
ĠAm sterdam
ĠD owntown
Ġweaken ed
Ġ195 6
Ġsl ap
Ġrev olt
ir teen
ĠLi u
ĠCustom s
ĠM illion
âĢ¦ ]
gl ass
Ġintermedi ate
ĠFort une
I tem
Ġded uct
B ur
im o
ĠP ra
ĠPart icip
ĠF REE
Ġch ambers
L ight
Ġsh arks
Ġprop onents
t ar
h un
ĠH ugh
ĠGall up
ĠDav ies
PD F
P an
Ġhon ors
C ore
d ue
en ment
Ġb ounds
Ġhint ed
ĠN ear
ĠB erry
Ġsh am
Ġheter osexual
Ġinter ceptions
pir acy
ĠBre aking
Ġpun ched
Ġsab ot
Ġprepar ations
qual ified
ĠTre vor
ĠEconom y
I B
Ġpl ague
ĠRest aur
ĠQuest ion
Ġto mb
Ġhero ic
Ġcan vas
ĠDian e
Ġgr abbing
ĠSh ia
Ġconver ting
art z
ĠS hen
ĠRhod es
Ġwor s
ĠCl iff
Ġ10 3
OU ND
ĠV as
Ð ±
S orry
Ġfair y
ang ular
Ġunp aid
Ġworth while
C ast
ĠE R
sm all
Ġhel pless
Ġrehab ilitation
is ch
Cons ider
A ud
ĠProv ince
ĠT as
ĠE ston
Ġc ort
ĠThrough out
Ġclos et
ific ent
ot le
Ġcompos er
ĠD iff
ott est
Ġcrus hing
it ures
iv ism
ĠP rest
Ġre op
L ondon
Ġt enth
" );
Ġex h
ĠG em
Ġd ess
Ġdiscipl inary
ump ed
ĠPir ate
Qu ery
ĠT ag
ub s
Ġfranch ises
Ġrum or
ol ation
Ġon set
per ing
Ġg el
Ġpo orer
ĠMe ga
ĠKit chen
Ġw olves
G ov
ĠP RE
c ule
og ene
Ġforg ive
Ġspec ulate
Ġlung s
N umber
ĠM int
ĠBay ern
l ate
ĠF X
Ġun authorized
Ġmar vel
ĠAm anda
ĠP ierce
Ġconting ent
ern ick
al ong
Ġlaw maker
Ġdraw ings
ĠAdd itional
Ġreject ing
s afe
ic idal
Ġab normal
4 50
ĠW orth
G ET
ĠC oy
stand ard
de ath
Ġprint s
ĠN ortheast
Ġcoll ar
ic us
W E
ĠIntern al
Ġpedest rians
ave z
ĠBar rett
Ġaspir ations
D ue
Donald Trump
ĠColon el
- $
Ġzomb ies
ig ger
S k
h ash
Ġsc outing
J es
Ġsu ing
Ġland sc
Ġkid ney
Ġad vertisements
Ġret ention
id ad
em er
Ex p
Ġabund ant
qu et
Ġedit ions
ra red
Ġsm oked
ĠÂ §
ĠMy ers
Ġgluc ose
Ġinfant ry
Ġfore see
Ġg ays
Ġspl ash
Ġv oy
Ġcl one
Ġimag in
ris y
Ġmin erals
B er
10 3
Ġdi agram
ĠM ate
ĠD S
f rac
Ġhe x
Ġl bs
ĠP am
affe ine
Ġreb ound
Ġinstall ment
Ġfall out
Ġsuprem acy
ĠM oy
ĠH aven
Ġreconc iliation
Ġw inger
ĠF ell
ĠHass an
Ġz oo
Ġby te
ĠV ita
ĠRe becca
Ġver ification
C ould
Ġtel escope
ĠGu inea
Ġplay ground
Ġchance llor
Ġalign ment
Ġtelev ised
im an
com b
st ro
ari us
Ġco erc
v s
ass ed
R ather
Ġres h
Ġcomp ilation
Ġeffic acy
ĠD ance
F un
ĠL akes
Ġ195 4
P ER
ĠStand ing
Ġt sun
ĠW ine
Ġro gue
osp ace
Ġfant as
h ou
person al
iz a
Ġco herent
Pr ice
ĠV ir
Ġdraft ing
c ano
Ġexc uses
Ġmortg ages
Israel i
v able
ĠR SS
Con nect
Ġsupp ression
Ġcl usters
Ġcock tail
ĠAt las
Ġdis able
O pp
Ġsm ashed
Ġsouth west
f ocused
be y
Ġorganiz er
b ons
Ġs aga
il ib
ĠP ine
Ġsc out
Ġst umbled
Ġblu eprint
ri o
ĠTest ament
um en
Ġstri ve
ĠR ating
Ġapp les
umn i
r ice
N P
Ġmon arch
Ġsuper star
ĠH av
ON D
l ich
m ag
Ġplag ued
Ġdictators hip
ĠM oses
J UST
d eter
ĠJ ak
P ath
m ove
udd y
Ġdisag reed
ĠD iaz
Ġcirc ulated
ĠQu ant
Ġcountry side
Ġgl uten
ĠCom plex
Calif ornia
tr ade
Ġunanim ously
Ġch orus
Ġunders c
Ġpro claimed
Ġroll er
Ġumb rella
he avy
ĠCoun sel
Ġaccus ation
ĠGu jar
Ġl ob
ĠV ote
Ġpecul iar
J ose
Ġmer ged
gr and
ĠRock y
Ġ10 6
rat t
Ġmanip ulated
z an
ĠLe icester
W all
ĠPrem ium
J ournal
Ġdismiss al
Ġpersu aded
Ġstaff er
Ġaccomplish ments
t arians
Ġrecept ors
Ġt iles
ĠR ol
kins on
ĠUS S
Ġmult inational
Ġdial og
Ġ ion
Ġprohib its
Ġost ens
eff icient
Ġaffidav it
ãĤ Ĵ
Ġener get
y ll
Ġs omeday
ĠIs is
L P
Ġcomp ression
ĠWag ner
Ġb un
ĠP ep
ĠJack ie
ĠC AP
hen ko
Ġinstruct or
Ġintimid ation
De ath
ĠLyn n
Ġlear ns
T M
ĠV ern
Ġl ith
Ġtor rent
Ġs or
Ġm aid
Ġprem ie
à ¥
Ġl akes
Ġbe lly
pro duction
xx xx
Ġd ots
ĠPl atform
ĠHug o
Ġcontin uation
ĠComp anies
ĠNep al
00 3
ĠWar rior
ĠM ist
Ġunl ocked
Ġmess y
Ġprotest ed
icult ural
Ġdr astic
ĠL ar
Ġbrew eries
ĠW on
Ġ19 17
R on
Ġcraft ing
Ġd ur
ĠS R
ĠIndust ries
ĠOs borne
g io
Ġp anc
ang a
educ ated
ott i
Ġb iblical
Ġst air
Ġinnoc ence
ĠB ag
wart z
f iction
Ġn as
= '
Ġm esh
Ġrational e
ĠRe venue
Ġsqu at
Ġbrows ing
if ax
bour g
Ġf ade
Ġd ock
Ġhead phones
ablish ment
Ġstap le
Ġtherape utic
ĠH amb
Ġl id
ox ic
ĠS ugar
bel ief
N early
ed a
Ġm int
ĠF argo
ĠMan ufact
ĠN OW
Ġest e
Ġmarch ing
Ġfr inge
Ġtele com
Ġcler k
Austral ia
ĠÐ º
Ġmaj ors
Ġcommod ities
NAS A
ĠYork er
ĠN arendra
s or
In side
Ġprogress ives
ve ment
reat ment
l ass
Ġb ark
Prof essor
Ġc ros
ĠA zer
Ġre imb
ĠRep ly
ĠRef uge
S ky
ĠP O
Ġsh attered
real DonaldTrump
Ġswift ly
Ġfreel ance
Ġse gregation
ĠK ub
ĠIS O
Ġinteract ing
us ra
Ġne oc
p rop
ĠB ast
Ġkill ers
ĠR unning
Ġox id
au f
Ġacc ustomed
pher d
rel igious
Ġadjust ing
Sec ret
ĠT IME
Ġbad ge
Ġubiqu itous
Ġprop oses
Ġund en
Ġresist ed
ĠWat ers
Ġp uls
Ġ7 50
u ilt
w ild
Ġpol ite
Ġreprodu ction
Ġcar ved
lling ton
ĠN W
od ore
Ġneg lected
Ġdest iny
ĠH uck
Ġind icted
ĠM AR
ĠZ omb
ĠH our
Ġsett ling
ab ase
ĠMan it
Ġw ax
ĠR ise
ol iberal
Ġopp oses
Ġscan ning
Ġsk ies
ãģ Ļ
Author ities
Pro v
ĠStr ategy
et r
Ġdecor ated
spe cial
ĠBur ton
Ġg ospel
Ġdilem ma
ĠKore ans
Ġadvert isers
Ġsol itary
ĠFe el
ĠW ave
ĠEuro pa
Ġant it
IL E
ĠBor is
Ġback pack
Ġpoison ing
ĠT ay
Ġco hes
Ġharm ony
ĠInter view
Ġn g
Ġdisreg ard
ĠA WS
ger ald
enz ie
Every body
F ort
Ġaccident al
ĠLuck ily
gener al
ĠW ald
ĠLen in
ed ience
Ġunt o
io let
ĠOff icials
Ġsp ider
Ġshoot ers
Ġl iable
ĠLink edIn
Ġcross es
yr us
Ġthank ful
Ġadvert ised
ĠEug ene
Ġmight y
Ġrep ression
W al
ĠSh awn
ĠCl aire
Ġemer ges
ĠPun j
ĠMour inho
Ġmisdem eanor
f acebook
oc hem
i ya
Ġw aking
Ġrepl ies
Ġcollect or
ĠAng lo
Ġge ographic
ĠSt ark
ĠChurch ill
orm an
ĠG addafi
ĠCON T
at ri
ĠS it
ĠArmen ian
Ġgovernment al
wh y
ĠLe h
Ġst alled
ĠAv iv
Ġy a
Ġang el
cho ice
ĠV ic
Ġo mn
ĠOrig inally
ci um
ĠNew man
Ġwild erness
Ġthank ed
ĠRel igious
art icle
Ġdoub ling
ĠMarx ist
ĠSerb ia
ĠPer u
Ġ195 7
D ark
in th
ord e
Ġver ge
ĠB oot
ĠRe y
f aced
ĠM ale
Eng lish
ĠI F
m t
Ġsub missions
ET A
ĠN PC
Ġstation ed
Pl ayer
Ġreprodu ce
ĠSt yle
Ġrem ake
ĠAmeric as
Ġcyn ical
ĠF ury
Le ft
Ġa ka
ĠSh ut
Ġric her
Ġ195 3
f ashion
Ġexist ential
Ġschedul es
te enth
Ġtr aps
she et
ĠR ising
Ġdownload ing
11 1
ar is
Ġbr ace
Ch arl
Ġweigh s
r anking
Ġpar ole
ĠLab s
ĠHung arian
M ary
Ġm ansion
coh olic
ro b
the ir
enc ia
Ġspecific ations
AC H
Mem bers
Ġpir acy
Ġveget arian
Ġscreens hots
F und
ĠD y
Ġtrans plant
ĠPer iod
Ġant agon
Ġconcer ts
ĠDem s
Ġsystem atically
are l
10 9
ĠO UT
C BC
Ġcl utch
Ġunanim ous
Ġgar nered
Ġproc ure
un ion
or ously
ĠD ocker
ace y
Ġrest ruct
Ġgard ens
Ġl akh
Ġsurg ical
Ġv ow
ĠConst itutional
L ocation
f est
Ġtum or
ĠFle et
Ġpolicy makers
Ġpsy chedel
ĠHe ather
m is
Ġdem ocrat
ast ics
Ġth riving
Ġdiv isive
IN K
Ġ} ;
Ġf ried
Ġearn est
Ġl enders
Ġcomment ing
n om
Sund ay
Ġp ac
al ine
ĠG E
ĠS orry
Ġmedic ines
Ġlog istics
ĠRes earchers
ĠHam mond
Ġcertific ates
Ġir regular
Ġrem edy
Ġexagger ated
Ġchar ming
Ġbrand ing
ĠâĢ ķ
og ram
Ġdown side
cript ions
Gl obal
ĠOut side
Ġwas ting
ĠF eed
Ġsent iments
Ġenfor cing
Any way
ĠO L
Ġmyth ology
Ġst igma
Ġinc arn
ĠM aid
I ron
Ġc it
Ġdin osaurs
Ġf al
ĠÂ Ĺ
Ġ< <
Ġs ized
ist ence
ĠRe ich
ĠRock et
Ġarchitect ural
Ġspons orship
product ive
ĠFor ward
Ġblog gers
ill as
d ies
ĠCongress man
l ove
ĠT ool
ov y
ĠSy nd
anger ous
Con nor
Ġign ores
Ġcommun al
Ġam ple
ĠNob le
ĠL enn
Ġserv ant
ĠAn kara
Ġshort ages
gu y
n n
z ip
he rence
Ġ( #
ich i
Ġimp art
Start ing
Ġcl oses
Ġtweet ing
ĠRap ids
Ġdepict ing
U t
Ġa rom
Ġ19 43
Ġarchitect s
Ġcongest ion
ĠA ce
Ġp ads
Ġform idable
ĠSyri ans
S ad
Ġret iring
ĠCons ult
UC K
ĠFreder ick
Ġse ated
Ġanim ations
Ġd amp
Ġconce al
Ġeven ly
ĠHig her
ass er
ĠRay mond
Ġpat rons
ĠNe igh
Ġcrack ing
Ġacclaim ed
Ġ19 55
Ġloud ly
u u
ĠWhe eler
com pet
Ġsoc ietal
ĠLeg ion
ad ic
Ġdr ills
ĠCong o
Ġar ises
Ġpath ways
Ġaggrav ated
Ġne p
Ġbu cks
ĠRE AD
Ġmass ively
Go vern
Ġmon key
Ġm um
Ġbod ily
m oon
y et
Ġincap able
Ġinject ed
ruct ions
ĠWrit ing
b ishop
Ġref resh
Ġske let
Ġseiz ures
Ġenvelop e
f ig
ĠA FC
ik ed
ĠKat ie
Ġplum met
ong o
ĠF ri
Ġcann on
ĠZe lda
in j
ab ee
ĠP owers
en za
m ia
J ason
Ġover c
Ġdesc ended
Ġgoal ie
old own
ĠVen us
ott a
ef ined
ĠM R
Ġper imeter
Ġsupp lier
Ġmerch ant
ĠC ert
Ġevac uation
Ġimp ending
Ġref rain
Ġdeep est
Ġfire works
Ð ³
Ne ill
Ġgrad ual
ĠC W
sole te
ĠGard ner
f ires
Ġsc ans
ih il
ĠLaure n
L oad
ĠP ip
IC S
ĠS onic
Ġm ans
Ġiniti ate
H en
Ġjurisd ictions
whe el
Ġlast s
Ġwhere by
ĠBuddh ism
17 0
Ġp act
Ġwho pping
Ġanten na
ĠS ikh
ĠSm ash
ĠSex ual
Ġc ough
ĠL anka
op ia
ree ze
M O
ĠRC MP
cl ose
Ġun identified
Ġaver ages
D D
Ã ¯
Ġann ot
ĠRel igion
ĠM Y
Ġmed d
ĠOff icers
Ġpup ils
ĠEll en
Ġindu ce
ĠPh ase
Ġcompan ions
Ġreserv ations
ĠCom bat
d ependent
t ical
Ġcounsel ing
ĠHans en
Ġproport ions
priv ate
as io
ĠD B
ĠJoy ce
C am
ic ular
Ġd itch
Ġfor ged
ĠP orsche
ĠHe in
Ġde gr
Ġplay able
ĠD re
Ġexplo its
Ġpredec essors
ĠVict ory
Ġaffili ation
Ġtruth s
Ġspect acle
Ġt apping
ĠI o
ĠL SU
oh yd
Ġrul ers
Ġnit rogen
) [
Ġir responsible
Ġd op
Ne ither
edd y
Ġs ir
h m
se ys
Ġrenew al
Ġrent ed
me aning
Ġfasc ist
ep ernick
Ġbr akes
pr us
Ġopp ressed
Ġsw all
n as
ĠF ighting
Ġbur ger
ĠL TE
ĠB rief
Ġcl an
ĠIn come
Ġmed als
ĠAp ache
ĠG ut
Ġsw ear
Ex pl
M ond
t arget
ĠN olan
Ġsens ory
Ġphil anthrop
ĠAndrew s
E st
R ev
ĠSp ark
ĠMin ority
Ġcirc ulating
ĠCard inal
Ġreg istry
Ġphotograp hers
Ġ10 7
ĠC ous
Ġca fe
ĠP u
ĠSant os
Ġeleph ants
Ġprolifer ation
ĠS ans
Ġdem ons
Ã± o
Ġatroc ities
ĠG ET
Ġtransform ing
Ġstub born
Ġv ou
Ġ19 49
Ġund o
Ġgest ures
ĠKu wait
ar us
Ġmem e
r ue
ĠT umblr
. /
sc ill
ĠRe ality
Ġstr ongh
ĠR i
Ġhigh s
Ġ10 8
Ġbre asts
ran ch
Ġrun time
Ġf ier
ĠB om
ĠE manuel
ĠN iet
ĠFro st
o i
Ã¡ s
st re
ill ions
Ġo z
Ġhe mp
Ġdisrupt ive
Ġculp rit
Ġch unks
ody nam
ron ics
Ġspeed ing
Ġal ley
Ġaw ake
at ra
Ġgood bye
Ġflood s
ĠProduct ions
Ġsuccess ive
is man
ĠMah m
U B
ĠG ent
Ġstri ps
ĠBra ves
ĠG olf
Ġlim bs
M ont
Semit ic
T B
ĠD ifferent
ĠMed al
Ġhal ted
ĠNe o
Ġinad vert
c reat
Ġand roid
ĠR aspberry
open hagen
Ġalleg iance
Ġmut ations
B usiness
ur istic
ĠC ultural
v on
at ical
Ġlau ndering
ĠIns pector
re b
ĠS leep
ĠRoy als
ĠSav age
Ġst all
ĠSuper ior
Ġmut ation
ĠCelt ic
Ġgrat itude
et ics
Ġpo pping
Ġsl ope
Ġr ude
Ġrem n
ĠEn joy
ld on
Ġrev ive
ĠCor nell
Ġexpend iture
Ã Ł
Step hen
W ed
Ġgrab s
Â Ĺ
its u
Ġplanet ary
p resent
ĠC OU
ĠP resent
Ġmemo ir
ĠGar rett
ĠElect oral
ĠJuda ism
Ġon ion
C ru
Ġrespect ful
VID IA
ĠF en
Ġsp ur
Ġcomfort ably
Ġsur real
Ġlim itation
Ġpseud o
M ic
10 6
ru gged
Ġrest oring
ĠD uck
Ġsafe guard
.âĢĿ )
OS S
com merce
ĠE cho
Ġvill ains
ĠRel ated
Ġp oker
Tr ue
Ġchick ens
ĠW enger
pict ured
Ġh ug
3 60
Ġcontinu ity
Intern ational
ĠD NS
com mittee
++ ++
Ġsad ness
Ġcor related
Ġdepart ed
Des ign
Ġundergrad uate
Ġtri angle
Ġ11 2
M R
ĠMed ium
Ġrob bed
ĠGree ks
ĠCamer a
ĠPeters burg
Ġharass ed
ĠCharl eston
25 6
ett es
osh op
r ath
ap i
ĠRes istance
Ġtempor al
s kin
b ai
ÑĢ Ðµ
ĠB A
Ġmicro bi
Ġworld view
Ġpiv otal
Ġincorrect ly
Ġexcept ionally
n ick
Ġauthent icity
Ġfor c
ric ks
p ensive
Ġsu cks
ĠK ur
ĠBel fast
Ġinc ub
Ġprofound ly
Mus ic
Ġgr ains
ĠP av
Ġinter ception
Ġbud dy
Ġge op
ĠP ale
ass ing
ch in
Ġsl ate
inc re
Ġdi ets
Ġel bow
ĠG L
Ġdisc rep
ij i
Ġsimpl est
ver ts
Ġdisc ern
re lease
Ġsl iding
Ġst d
Ġcommer cially
asket ball
ĠAl ban
it ant
Ġgener als
h on
Ġcamp ing
Ġge ek
j ournal
os lav
ĠMarket ing
Ġun official
M ag
B ad
en ame
Ġassess ing
å ¤
alk er
Ġo v
ex isting
Ġhit ter
ĠPre p
l ang
Ġs ins
ĠK re
Ġper former
ĠJ ail
od o
s ince
ĠWe ight
ep tion
Ġrem oves
ĠT ucker
Ġresp ir
ĠRep orter
Ġdis comfort
c ounter
Ġincarcer ation
ĠT SA
ort heastern
Ġam en
ĠHar old
idel ity
Reg ardless
Ġske leton
ĠPod esta
Ġimpe achment
Ġl ure
Ġess ays
d ain
Ġall erg
ĠJo an
Ġnep hew
ut ory
w on
el o
Ġs ou
â Ĺ
ĠExt ra
st ant
cent ric
Ġdr ift
Ġhypoc risy
ew orthy
Ġexecut ing
ãģ Į
Ġspec s
IS IS
ĠTechn ical
ĠMoh ammad
Ġinc idence
Ġz ip
ĠÐ ´
ĠSt ur
Ġequ als
Ġ19 46
Ġburg l
Ġc ove
Ġse af
ĠE z
oh an
Å «
em on
ĠD uc
Ġsynt hes
Ġpharm ac
Ġwork load
Ġem pt
b order
ĠChrist ine
Ġmis ery
Ġbl oom
ĠPop ular
Ġspec ulated
Ġconf essed
char acter
ik ers
LA Y
ĠRevolution ary
H H
Ġper t
Ġinj unction
Ġpil gr
Ġe lic
Ġhall uc
Ġtiss ues
ĠC aucus
act ly
Ġgra ffiti
Ġrain fall
Ġtest osterone
T en
Ġdecre ases
ĠNic ole
Ġprovoc ative
Ï Ħ
Ġn ud
ĠR ole
gress ive
ĠSebast ian
Can adian
ĠMult i
ĠCol bert
ĠEth ics
t im
any e
ĠList en
iss ue
ĠM TV
ĠCom put
ĠMar athon
Ġtot als
Ġsit uated
Ġx en
oot er
ĠTe en
Ġprep ares
Ġdec omp
ĠCar p
Ġbigot ry
W ait
Ġrail road
Ġcampaign ed
Ġdev ote
just ed
Ġinflamm ation
Ġsy rup
u ously
ON G
Ġcoll usion
d an
Ġrul er
ĠPed ro
Ġd Ã©
Ġboard ing
Ġsh ining
Ġinv aded
Ġtend encies
es que
Ġpuzz les
threat ening
ĠBl ocked
tt a
ĠFull er
ĠAm nesty
ĠDur ant
Ġb aked
ub arak
oy a
ĠStrateg ic
N F
T it
G T
ĠRec ent
at z
ĠPatri ot
Ġinter vals
ĠApp lication
cap ital
Ġst ain
ĠV it
ĠM AN
Ġun aff
ĠTh ing
ĠN D
W C
Ġnot ions
ĠAud i
ĠD EA
gl obal
ĠF actory
ĠN R
Ġper il
Ġt abs
St ream
rain e
Ġschizophren ia
Ġsm ash
10 7
Ġdict ate
Ġnew born
ĠDrag ons
k top
r itional
ĠP oor
Ġvill agers
ĠZh ang
Ġb aff
Ġtheoret ically
auc as
g ard
B ase
Ġk ings
Will iams
Ġprol ific
Ġbo il
Ġre play
ĠAr ist
Ġpreced ing
ĠHe b
ĠJ ab
ĠBut ter
utter stock
ĠS ize
Ġfil ib
Ġspecial ty
ĠFly ers
ĠS aid
het ics
Ġconflic ting
ĠD HS
ĠP retty
Ġqu ir
ĠTH C
ous se
ĠSe vent
ĠMe chan
g ithub
Ġout we
sp ot
hard t
ir ling
Ġsal mon
Ġtoug hest
Ġr app
R o
ĠLe eds
Ġpair ing
m oney
Ġcoun ters
t aking
but ton
Ġ2 30
ĠArch ives
Ġpref ers
Ġpro w
ĠJ as
ĠU AE
not es
ĠB ug
ĠP itt
a ic
Ġ-- >
Ġbra ke
K now
ĠV ander
ĠInf o
Go ing
Sec urity
ĠW itch
ĠPat terson
Ġstr at
Ġinex pensive
Never theless
Ġneighbour ing
ĠV oy
en h
Ġsur rog
ĠNot ice
OL D
ĠZ ika
ĠBul gar
Ġl ocking
Ġyear ly
Ġinv asive
us a
Ġsm iles
r aining
ĠLam ar
Ù Ī
Ġf ills
19 99
ĠEp ic
Ġpl ac
Ġwh ip
Ġex pelled
Ġcl ay
ĠLie utenant
Ġexpl ode
ĠSh ore
Ġur ges
Ġ10 9
Ġpl ight
Fr ance
th ose
13 5
Ġsim ulations
Ġrot ating
ĠÃ ¢
c ats
Ġins iders
ĠCal vin
c p
ĠLic ense
Ġem ission
ĠIndones ian
ĠL ac
ĠCh i
ĠMel issa
ĠFe atures
Ġgig antic
Ġrab bit
W orks
German y
iv or
Ġrestrict ive
ĠBrad ford
Ġadmin ister
ĠA id
Ġpass er
e ast
Ġconfig ure
ĠSt am
Ġexpl ores
Ġste er
hib ition
Ġmail ing
ĠS ke
be ck
Ġvoc abulary
ĠS ara
Ġche at
ĠGod s
ĠL un
Ġapp end
IC A
ĠX ia
Ġat om
cr ime
ĠCu omo
ĠR ash
Ġguess ing
ĠH oney
ĠMy an
Ġunivers ally
Ġinstall ations
Ġpack ing
ĠGujar at
Ġc ues
ĠWh ole
ĠWi Fi
Ġgl am
ĠCh ang
ĠAv ailable
ĠGro ve
Ġimper fect
M il
ym es
h awks
Ġch olesterol
Ġnow adays
Ġscore r
Ġgr ammar
Ġal erted
Ġam azed
Ġcondemn ation
c amera
Sen ator
Ġaccum ulation
Ġther m
bo at
Ġimp aired
Ġvacc ination
com pl
Ġperson a
ĠIss ue
C arl
Ġlif es
Ġh ottest
ĠBill board
g ering
ĠG erald
S ystem
ket ch
Ġh ates
Ã± a
M ajor
F ast
Ġappl ause
Ġcommercial s
ĠFitz gerald
aw k
Ġcelebr ates
ĠJoh ann
Ġdevelopment al
. *
Ġpost ure
Ġdefense man
ĠCh avez
Ġlect ures
Ġrat ios
Ġbr ink
Ġa we
Ġpolit ic
IG N
Ġcommun ism
Ġdisproportion ately
Ġsal v
Ġlaw ful
och ond
Ġjihad ists
Ġexp ire
att a
j ava
ĠN om
ĠBay lor
Ġritual s
d uty
w y
rent ice
ĠSol utions
Ġsmugg ling
Ġcris p
sw er
Will iam
Ġd ictionary
rend ered
T I
Ġdist urbed
Ġ/ *
Ġsubsid y
nt on
ĠU E
Ġinsult ing
ĠNAS CAR
ĠW yn
ĠKey stone
ĠGu ate
Ġdescend ants
ĠSor os
Ġremember ing
Ġle v
ĠChap man
Ġr av
Ġco ached
Ġunder mining
ĠW ong
f ounded
ĠS ettings
ct ica
g all
ĠMar ijuana
Sen ate
ĠMyan mar
ĠD ocument
Go vernment
ĠLiber tarian
f ell
ĠG amer
P O
ĠC oul
Ġch illing
Ġf ox
w omen
Ġqu ar
Ġoil s
Ġinfect ious
oc ating
Ġexpend itures
Ġinsurg ents
P riv
Ġgl owing
ĠTw ilight
Ġrum ored
ĠLind sey
Ġfo am
Ġhorm ones
ĠW ash
av ier
che wan
Ġexperiment ing
ic z
Ġspecific ation
Ġdiscrimin atory
ĠDe V
ĠNic olas
11 2
Ġair ing
man ned
ĠH os
Ġpractition ers
Ġconstruct ive
ĠPhilipp ine
ĠOrig in
C oll
ĠL B
ĠShe ikh
ĠFl ore
Ġcler gy
k ick
ĠW AS
ra its
od us
Ġimp uls
Ġtra umatic
ĠStephan ie
Ġfam ed
Ġmot ors
Ġext inct
ail ure
Orig inally
Ġb apt
Ġtrans cend
Ġsle w
Ġ13 5
C ost
ext reme
ĠSh ir
ber ries
Ġdefin ite
Â ½
C ase
Ġdecre asing
Ġfr iction
ĠDis play
Sim ilarly
ĠW rite
Ġconfig ured
Com ment
ĠZion ist
S ize
li able
Ġhands ome
en ary
Ġpro se
ĠResp onse
Ġc emetery
Ġd ynasty
Ġpatri ot
Ġrest s
ĠFuk ushima
! ),
T aking
ĠM ental
ĠCom ments
if ts
ĠP izza
Ġpe as
ĠC ain
Ġpet ty
Ġ) :
ĠW id
f at
ĠR id
Ġpol ished
ign ant
Ġm ocked
ĠPh arm
Ġmunicipal ities
Ġexhib ited
ĠBe e
St and
ĠSt rat
Ġnic otine
ĠA CA
ĠLes lie
Ġconf ess
AR S
Ġo ri
ĠC openhagen
ov sky
ĠC ed
Ġtsun ami
Ġconsult ed
ĠE ld
Ġfort unes
ĠOpp osition
Ġjud iciary
ĠFred die
Ġunre asonable
Ġt ipped
ĠW ILL
ĠUnder ground
ĠStand ards
r Ã©
am oto
ĠSol omon
Ġtr act
Ġrestrain t
Ġs ulf
Ġout doors
te ms
T s
ms on
Ġdwar f
Ġhist ories
Ġcontrad iction
ĠSS D
ĠT yson
Ġins ign
iv ities
Ġrevers al
ĠPsych ology
t xt
Ġsand wic
Ġphenomen al
Ġtr unk
Ġbub bles
ĠI PA
our cing
Ġcyber security
E ff
ĠA W
i very
Ġf aded
uper t
ĠHas kell
ĠHell o
Ġrecons ider
reg ulated
Ġdisp atched
10 8
Ġschedul ing
Ġl amp
Ġinterpret ations
all ic
sh ort
L uc
vid ia
P ack
id as
Ġemploy ing
ĠTe ams
ĠOs ama
N ov
b c
Ġ195 2
f inals
Ġt earing
ob il
Ġplug ins
Pal est
Ġcher ry
lu ent
ĠFr aser
ĠConst ruction
ãĥ ³
ĠCy prus
bro ken
ĠOper a
ĠBened ict
at hing
Ġmon uments
ĠTre nd
Ġinstinct s
Ġprin cess
Ġcommem or
is y
iov ascular
ĠTr inity
IS H
ĠL ore
ĠOb server
Ġmush rooms
ĠChar acter
Ġgeomet ry
Ġp ains
ĠR um
Ġ15 00
ĠBrig ade
Ġdistribut ing
.âĢĻ âĢĻ
Ġesp ionage
E conom
Ġra ided
Ġrent s
E arth
Ġmillenn ials
Ġgrand parents
Ġge ography
Ġboost ing
ĠAst ros
ĠDog s
Ġs arc
Ġp ins
ĠN issan
Ġpart nered
ĠShort ly
ĠAss ass
Ġpenet ration
an amo
Ġfulf illing
w agen
medi ately
Ġouts iders
Ġblat ant
Ġuns pe
Ġ1 19
Ġsh ale
ne eded
ess im
Ġcollect ors
EM A
Orig inal
Ġpass ages
ĠNon etheless
Mat thew
c ritical
ent on
am bo
ĠE VER
Ġkind ness
Ġmand ated
ALL Y
ĠM alt
man agement
Ġsl ash
Ġfemin ine
Ġdrag ging
ĠValent ine
ĠAn s
c uts
Ġecl ipse
Ġconc ussion
c orn
ĠG ru
m aid
Ġsupp lements
an an
Ġobst ruction
st en
ĠSh arks
Ġoptim ization
r il
ĠDet ective
Ġdiscour age
P op
Ġstart ling
ĠM K
az ingly
ĠUn block
Pro t
ĠInnov ation
Ġs inking
ĠUn known
ĠRoc hester
Ġpres crib
ĠG C
h ma
ĠSh arp
k t
Ġlong standing
tle ment
Ġrac ially
Ġstrengthen ed
Ġhome work
Ġregul ating
ĠFranc o
Ġclar ified
ĠB end
def ault
Å Ĥ
iv ist
Ġfront s
Ġs acked
Ġin mate
Ġread ings
ĠFront ier
ĠInterest ingly
Ġhe ars
Ġecosystem s
ĠAs ked
Ġconc urrent
ĠMig uel
ĠC V
Ġfin anced
udd le
Ġmanifest o
Ġsort ed
Ġexcell ence
Ġ iv
Ġn ap
ĠArch ive
r anked
and ro
. âĢĶ
Ġr ighteous
yn chron
Ġgun fire
Ġeth ic
F lor
orn ings
il ot
Ġv or
Ġmar itime
Ġstat ues
l aughs
aj a
Ġsub set
Ġgu iding
ĠKir by
Ġgen res
Ġheavy weight
E ast
iol a
ĠSch war
O G
ar ray
Ġoptim ized
ĠJav ascript
Ġcompet ed
ip al
i ating
Ġ19 33
uc ing
Ġm aternal
pat rick
Ġbl ues
he ne
ĠY ug
ĠMotor ola
osoph y
ĠEx pect
ĠH ers
Ġfront ier
Pre vious
m ot
z ero
Ġfat ally
Ġjewel ry
ĠDecl aration
Ġleg ends
ĠL ords
Ġyouth s
reat h
Ġoun ce
Ġindic ations
Ġch ased
Ġout going
ach ine
ĠAv iation
ĠArt icles
e on
Ġen cl
Ġfulf illed
Ġgate way
l ide
ĠSpot ify
Ġh amm
ĠFr ances
v ine
Ġethnic ity
Ġd wind
am my
sh are
Ġarc ade
ĠO dd
D M
ĠBar on
Ġproceed ing
her ty
Ġinv oked
Ġinflamm atory
est ablished
act ivity
Ġrun way
umb les
ld om
ĠAst ron
N R
ĠJohn ston
Ġcart oons
ak o
ĠCh icken
Bl ock
Ġpestic ides
Ġb ully
Ġreal izes
Ġtrail ing
J udge
U MP
ier i
Ġsp un
aid a
Ġopen ness
ĠP P
ĠAll ied
ĠArt ist
ĠL uk
ĠJac obs
Ġad am
ys ics
Ġdeploy ing
Ġpump ing
... ]
Ġworks hops
Ġunle ashed
ĠPubl ishing
ĠIs n
Ġmis represent
Ġpen insula
Ġun available
Ġimpl ication
Ġexplo iting
ĠN er
ĠPay Pal
he a
Ġoblig ed
mans hip
l ists
Ġoverr ide
ĠT ank
Ġf eder
cept ive
Ġorganiz ational
Bre aking
ĠAny way
Ġs unk
Ġdef ects
Ġ25 6
ĠCustom er
Ġt ac
Ġrock y
ĠPre vious
To o
: [
Ġc ant
Ġnarc iss
Ġastron omers
Ġpr aying
Ġbl ur
ĠMon roe
ĠIb rahim
B on
Ġunexpected ly
ov able
Ġbur nt
Ġmoist ure
Ġabrupt ly
Ġcoh ort
Ġm und
Ġkn ives
Ġoversee ing
ĠL ok
og rams
Ġhold ings
ĠAfric ans
ĠG ren
ĠDo om
Ġch ord
Ġpar cel
ing es
ĠF ry
s end
Ġpe aks
Ġframe works
Ġob ese
Ġf erry
Ġparent ing
bet ween
ĠV PN
Ġbl ink
P rop
ĠV on
Ġmod ular
Ġhes itate
ut sche
Ġyield ed
H appy
ĠSh annon
Ġchall enger
Ġbi om
ĠAr ms
ĠCon nor
Ġe ve
Ġwor m
Ġun ins
en f
Oh io
Ġsplit ting
ig ated
ĠOtt oman
Ġvib e
Ġad missions
old en
Ġtermin ation
Ġas semble
Ġvisual s
Ġw ishing
AN C
ĠK ris
T F
st own
ĠInt o
Ġphilos ophers
ĠAthlet ic
ĠCy cling
ĠStock holm
Ġch assis
ĠSol o
Ġnotor iously
ĠC oc
ĠJan et
Cle arly
Ġto re
Ġnot ify
Ġsummon ed
ĠSc out
11 4
Ġplant ing
Ġlabel ing
ĠWATCH ED
ĠH il
k ish
Ġsn ipp
r ag
ment ia
e ur
oss ip
if ty
Ġill umin
A ction
R est
Ġh iking
att led
Ġspont aneous
Ġp enny
us ually
Ġret ali
g ot
Ġc av
ĠL is
Ġk idding
Ġenerget ic
vis ors
Ġwith stand
Ġcon ve
Ġgrand children
Ġdecl ares
Ġens l
Ġceremon ies
Ġmic row
Ġ( (
uck ing
ev il
AN N
Ġbroadcast s
p ires
Jew ish
Ġbacter ial
Ġslog ans
ĠA ber
Ġfl ipped
ĠKa epernick
å ħ
en o
ĠAN Y
l ated
us ch
ĠCom mercial
Ġwand ering
aci Ã³n
t ree
Ġhand ler
Ġ17 5
sm ith
Ġun in
Ġgener ators
Ġcontrac eption
Ġunder mined
Ġhom emade
Ġcos m
Ġsil icon
Ġmod s
Ġcentral ized
Ġbl onde
ĠAl bum
acc ount
Ġdemol ition
Ðµ ÑĤ
Ġper vasive
Ġf ixture
ĠOpp ortun
Ġs lick
reg ulation
ĠG IF
Ġbe verage
hy d
Event ually
Ġtrig gering
Ġexc luding
Ġmotiv ations
ĠK ol
Ġescal ation
c ool
ĠBur ger
in h
Ġstr anded
ut z
Ġsoc ks
ĠGold berg
Ġw izard
Ġhe ap
ĠReg ist
R a
U k
it ious
og o
olic y
M rs
l oss
Cont ent
Ġtom atoes
uck land
L im
Ġdecl ar
ra e
Ġretain ing
Ġprogress ed
17 5
ĠS ally
ĠK abul
Ġcar te
2 40
ĠAl v
ĠSw ord
ĠAur ora
Ġb ids
ĠSec urities
lu ence
Ġl ent
Ġfil ings
Ġp as
ĠB ath
Ġev id
ĠField s
x imately
Ġd ental
ĠS ark
Ġsp rawling
ĠMac ron
Ġproced ural
p ng
Ġor thodox
ĠÂ ĸ
rec ogn
ĠPengu ins
Ñ İ
ĠSc and
ĠD raw
Ġob solete
Ġdiss atisf
/ -
ĠH iro
Ġmet ropolitan
in av
ĠN igel
V an
get own
ĠO ption
Ġsat ir
ĠTor res
Ġrespect able
ĠW ool
Ġlos ers
are th
ĠHann ity
ĠM Hz
Ġbureaucrat ic
" ?
Ġ19 14
Ġblock ade
ic ially
Ġdom est
Ġsid eline
Ġsqu ares
ĠC ec
Ġmis guided
Ġsod ium
ĠSant orum
o os
Ġpione er
V ia
ĠD as
ĠNew ark
ĠHor izon
S ean
j son
EN S
Ġresist ing
Ġcon quer
ĠP ure
ĠP ixel
ag ent
Ġd urable
Sc roll
ud get
Ġbus h
Ġgl ue
Ġhigh ways
Ġdatas et
ĠL I
Ġrese ar
go ogle
dig it
ĠMo zilla
Ġreject s
ĠRut gers
ocaly ptic
Ġa isle
N I
Ġl ord
Ġstat utory
Ġcancell ation
Ġmat urity
che t
Ġc affeine
Ġcor ro
ĠÎ ±
-------- ----
ĠGuant anamo
ĠSte ele
ĠPer th
ĠLu cy
Ġrestrict ing
S oon
r ar
Ġsynt hesis
ĠMad uro
on ial
ĠD ew
ĠBlack s
Ġimag inary
ĠA AA
Ġaw ait
ĠR andom
ĠHar b
Ġmetab olic
at ible
om orph
avor ite
Ġund ec
Ġbal ances
Ġmon keys
uss y
go ers
Ġvan ished
d ou
Ġass im
Ġtest ament
ĠLaw s
R Y
ĠF it
Ġassist ing
ip es
Ġrespir atory
c hens
i ago
Ġcub ic
Ġse ating
Ġle isure
ĠAdvis ory
Ġs igh
Ġche ering
Ġalph abet
Ï ģ
Ġimp over
Ġlab s
ĠRes cue
ĠVol ks
Ġsmok ers
Ġar rows
Er ror
Ġcan cers
Ġstress ful
Ġutil izing
Ġmagn ificent
Ġvis ions
not hing
Th ursday
Ġdisc arded
ĠÃ® n
ĠPTS D
Ġprev ailing
Ġarm ored
Ġconsult ants
onge vity
is ine
Ġsin ister
Ġdem ographics
Ġrum ours
M essage
S at
t ab
Ġun for
ib o
m ith
Ġvers a
Mond ay
Ġre write
ĠH ang
ĠN I
ĠPod cast
ĠMo z
Ġth ieves
ĠF ah
ĠF usion
Ġce ased
Ġobject ed
G ate
al most
cl air
Ġf uzz
Ġstandard ized
Ġlik ing
at ts
Ġc raz
Ġelect rons
Ġlaund ry
ĠZucker berg
Ġab using
ĠJoe y
ĠA gg
ĠF ul
ows hip
Ġcirc uits
Just ice
Ġinsist ence
re ally
ru ce
Ġexp ands
Ġlive lihood
ĠF i
ud o
rac use
ĠBoy d
ĠQuest ions
Ġpro let
Ġarbit ration
Ġimpress ions
oper ation
Ġ195 1
ĠS ou
Ġaut obi
Ġtele communications
ord ered
d rive
ve illance
Ġsc aled
ish i
S ex
Ġne oliberal
ess ment
Ġjud gments
ĠT witch
ĠP ool
ib a
F riend
ir rel
Ġad here
ĠWe ber
Ġrel iably
Ġac oustic
Ġa ided
ĠS ina
Ġ19 18
ĠCre ated
ĠAg es
bet ter
######## ########
pe x
CL OSE
Res earch
Ġrehe ars
ĠF E
Ġ19 38
Ġpump ed
ĠDani els
ĠGreen e
ĠM ubarak
Ġde ception
oc re
Ġpromin ence
Ġstim ulate
od i
ĠR iot
ĠSub ject
Ġswing ing
ĠN u
Ġincons ist
ĠSad ly
Ġt an
Ġfear ful
j ad
Ġde port
Ġg n
ĠAntar ctica
ron ting
Ġcondem ning
ĠMon itor
mod el
Or gan
Ġdiff ers
Ġsacrific es
ĠPhys ics
g ic
ĠWhe never
on el
Ġgrad uating
ĠM au
ĠCom pl
ĠMar riage
ĠMart y
ĠHoff man
Ġteasp oon
Ġprov oked
Com ments
e a
ble ms
cl oud
Ġjihad ist
ĠAna heim
raft ed
ym ph
F E
ĠAl leg
Ġg ast
Ġdisrupt ed
ĠAC T
Ġrou ter
ĠWol ver
Ġn ause
Ġdisgr ace
Ġtext ures
ĠV II
ilib rium
ag netic
ĠStat us
ĠR OM
Ġtermin ated
ĠL inks
Ġelev ation
ĠHann ah
Ġpack et
d ates
Ġpir ate
Ġbull pen
Ġconf ession
let ion
Ġ[ âĢ¦]
St ay
Ġnostal gia
Ġori ented
g it
Ġb olt
Ġcomp ute
Ġhur ry
Ġst ared
ĠSch wartz
Ġtheat rical
Short ly
ĠE y
ĠFinn ish
Ġcollabor ate
ĠTon ight
ĠManit oba
ĠS uff
ĠI X
Ġ11 4
Ã ¦
Ġsubst it
ĠH ash
ĠHist orical
Ġconserv atism
ĠCrit ics
Ġheft y
Ġun sett
Ġres umed
M oney
ĠR NA
Ġsky rock
Ġpir ates
ĠG ust
ĠWik ileaks
Ġpossess es
Ġmel ted
Ġpresum ed
Ġburd ens
AM A
Ġwheel chair
Ġdownt urn
Ġ12 3
Ġtro lls
A ccess
F re
ang ling
Ġend urance
Ð¾Ð »
Ġing en
Ġc apped
ĠElect ions
Ġl ays
Ġre written
fashion ed
Ġoverse es
Ġmim ic
ĠS z
16 8
Ġostens ibly
Ġtem pted
Ġrev ol
ad an
in ness
ĠJ P
Japan ese
Ġconf inement
ĠRa q
L ow
Ã ´
ĠB U
Ġpun ches
Ġm og
Ġsc outs
Ġkey word
Ġunfair ly
Writ ten
per fect
Ġe in
l aughter
Ġw aving
per cent
ĠMic key
ĠDI Y
Ġchrom os
ĠL imb
Ġmon st
yr r
ĠOri oles
Ġth igh
ĠR an
Ġinsult s
ĠV C
indust rial
ĠM H
ff ield
in ion
ĠID F
ĠAr ray
ĠY ORK
ĠWill ie
ĠR anch
ĠKaz akh
Ġfold ed
Sm all
Act ually
ag i
11 3
ĠD ol
Ġgun shot
ow ler
Ġout ward
Ġentit lement
Ġt ones
Ne il
Ġviol ently
Ġharm less
Ġrot ate
K A
or st
Ġa ce
[...]
